'<pad>'
'<EOS>'
'._'
', _'
''_'
'_'
'I_'
'you_'
's_'
'?_'
'the_'
'to_'
'؟_'
'، _'
'a_'
'- _'
'-_'
'لا_'
'من_'
'. _'
'!_'
't_'
'في_'
'أن_'
'ة_'
'it_'
'هذا_'
'that_'
'of_'
' (_'
'You_'
'and_'
'is_'
'in_'
'على_'
'me_'
'ي_'
'ما_'
'..._'
' ؟_'
'ا_'
'و_'
'أنا_'
'هل_'
'm_'
'on_'
'ه_'
'يا_'
'ك_'
're_'
'ذلك_'
'this_'
'لقد_'
'know_'
'لم_'
'for_'
'حسنا_'
') _'
'... _'
'was_'
'my_'
'we_'
'your_'
'It_'
'have_'
'(_'
'be_'
'أنت_'
'"_'
'not_'
'do_'
'ت_'
'ن_'
' ، _'
' "_'
'ماذا_'
'What_'
'with_'
'كان_'
'هنا_'
'ى_'
'are_'
'don_'
'can_'
' , _'
'he_'
'what_'
'd_'
'just_'
'هو_'
'ان_'
'إلى_'
'هذه_'
'up_'
'all_'
'We_'
'كل_'
'And_'
'here_'
'like_'
'ها_'
'get_'
'كنت_'
'll_'
'No_'
'about_'
'نعم_'
'right_'
'out_'
'عن_'
'ر_'
',_'
')_'
'him_'
'م_'
' ._'
'ل_'
'e_'
'هناك_'
'نا_'
'go_'
'Oh_'
'y_'
'at_'
'ed_'
'ليس_'
've_'
'He_'
'! _'
'no_'
'That_'
'so_'
'شيء_'
'ing_'
'The_'
'there_'
'فقط_'
'her_'
'لك_'
'ين_'
'مع_'
'الآن_'
'one_'
'want_'
'but_'
'Yeah_'
'" _'
'got_'
'الذي_'
'لي_'
'ون_'
'د_'
'think_'
'أجل_'
'ني_'
'لكن_'
'إذا_'
'gonna_'
'ب_'
'إنه_'
'يجب_'
'they_'
'Well_'
'if_'
'an_'
'But_'
'كيف_'
'ات_'
'will_'
'ية_'
'now_'
'So_'
' -_'
'لن_'
'back_'
'أي_'
'us_'
'انا_'
'أنه_'
'his_'
'time_'
'from_'
'see_'
'This_'
'she_'
'did_'
'هم_'
'نحن_'
'سوف_'
'or_'
'them_'
'as_'
'هي_'
'جدا_'
'going_'
'وا_'
'Okay_'
'man_'
'قد_'
'فى_'
'been_'
'ع_'
'كم_'
'عندما_'
'need_'
'. - _'
'She_'
'س_'
'الأمر_'
'were_'
'كانت_'
'good_'
'Hey_'
'ق_'
'حتى_'
'had_'
'كذلك_'
'لماذا_'
'who_'
' - _'
'would_'
'مرحبا_'
'some_'
'شكرا_'
'r_'
'how_'
'n_'
'How_'
'إنها_'
'They_'
'قبل_'
'ف_'
'could_'
'Yes_'
'،_'
'بعد_'
'انه_'
'come_'
' " _'
'عليك_'
'Why_'
'.._'
'ولكن_'
'هيا_'
'ـ_'
'didn_'
'take_'
'Come_'
'التي_'
'أو_'
'There_'
'أعرف_'
')، _'
'way_'
'by_'
'أين_'
'أنك_'
'when_'
'إن_'
'ربما_'
'tell_'
'say_'
'something_'
'تلك_'
'حقا_'
'لو_'
'more_'
'es_'
'A_'
'به_'
'بعض_'
'down_'
'علي_'
'ء_'
'really_'
'l_'
'أريد_'
'All_'
'our_'
'make_'
'الى_'
'mean_'
'يكون_'
'never_'
'أعتقد_'
'كلا_'
'تي_'
'people_'
'انت_'
'If_'
'over_'
'? _'
'er_'
'Let_'
'too_'
'has_'
'am_'
'مثل_'
'كما_'
'ح_'
'ز_'
'thing_'
'الوقت_'
'له_'
'أيضا_'
'off_'
'بخير_'
'يمكن_'
'جيد_'
'okay_'
'يبدو_'
'تك_'
')؟_'
'أعلم_'
'only_'
'Don_'
'then_'
'said_'
'look_'
'لدي_'
'صحيح_'
'رجل_'
'let_'
'يمكنك_'
'لست_'
'تكون_'
'little_'
' ..._'
'شخص_'
'Now_'
'Do_'
' !_'
'love_'
'اء_'
'."_'
'غير_'
'عليه_'
'much_'
'Just_'
'لذا_'
'آخر_'
'أكثر_'
'doing_'
'find_'
'God_'
'أليس_'
'why_'
'still_'
'sorry_'
'two_'
'very_'
'My_'
'.. _'
'work_'
'Where_'
'شيئا_'
'should_'
'before_'
'Is_'
')._'
'تعرف_'
'بك_'
'انها_'
'day_'
'لديك_'
'تريد_'
'أوه_'
'where_'
'anything_'
'ته_'
'sure_'
'بي_'
'أحد_'
'أنها_'
'any_'
'يمكنني_'
'Are_'
'than_'
'into_'
'Who_'
'سيكون_'
'أستطيع_'
'مرة_'
'even_'
'منذ_'
'الرجل_'
'تم_'
'أيها_'
'رة_'
'ly_'
'help_'
'اليوم_'
'ng_'
'h_'
'life_'
'ثم_'
'well_'
'other_'
'ار_'
'لدينا_'
'thought_'
'talk_'
'give_'
'Mr_'
'Look_'
'i_'
' .._'
'بها_'
'o_'
'night_'
'home_'
'واحد_'
'وأنا_'
'again_'
'Thank_'
'♪ _'
'؟ _'
'قلت_'
'بأن_'
':_'
'ض_'
'Get_'
'guys_'
'first_'
'because_'
'بة_'
'آسف_'
'call_'
'away_'
'ج_'
'Not_'
'الناس_'
'these_'
'لها_'
'Good_'
'g_'
'مكان_'
'أنني_'
'أفضل_'
'long_'
'guy_'
' .. _'
'حدث_'
'اذا_'
'k_'
'يكن_'
'Did_'
' ... _'
'الكثير_'
'please_'
'Your_'
'ط_'
'ش_'
'وقت_'
'أخرى_'
'last_'
'around_'
'old_'
'done_'
'doesn_'
'يوجد_'
'شئ_'
'أمي_'
'al_'
'ليست_'
'always_'
'معك_'
'علينا_'
'told_'
'ever_'
'Uh_'
' . _'
'ث_'
'those_'
'things_'
'made_'
'يل_'
'سيدي_'
'رائع_'
'put_'
'lot_'
'يوم_'
'أبي_'
'house_'
'' _'
'فعل_'
'بالطبع_'
'place_'
'nothing_'
'years_'
'does_'
'‫_'
'ولا_'
'تماما_'
'تفعل_'
'wanted_'
'better_'
'يمكننا_'
'won_'
'their_'
'واحدة_'
'st_'
'must_'
'great_'
'بهذا_'
'keep_'
'لة_'
'غ_'
'name_'
'might_'
': _'
'سيد_'
'ألا_'
'big_'
'believe_'
'لأن_'
'دائما_'
'بذلك_'
'العمل_'
'ور_'
'الليلة_'
'everything_'
'after_'
'Can_'
'uh_'
'feel_'
'Then_'
'someone_'
'عة_'
'دي_'
'new_'
'else_'
'When_'
' ♪_'
'يه_'
'لـ_'
'son_'
'left_'
'hear_'
'bad_'
'Go_'
'نى_'
'منك_'
'مة_'
'through_'
'Right_'
'لهذا_'
'بالنسبة_'
'، (_'
'car_'
'ري_'
'أبدا_'
'إلهي_'
'money_'
'Please_'
'In_'
'ام_'
'ال_'
'{\\_'
'stop_'
'p_'
'girl_'
'ول_'
'هكذا_'
'المكان_'
'wait_'
'course_'
'ch_'
'came_'
'قال_'
'الحقيقة_'
'إذن_'
'أعني_'
'yeah_'
'real_'
'already_'
'2_'
' '_'
'يحدث_'
'لنا_'
'حسن_'
'أني_'
'ty_'
'care_'
'1_'
'wrong_'
'world_'
'coming_'
'"._'
'تعلم_'
'happened_'
'لذلك_'
'كي_'
'انك_'
'الشيء_'
'remember_'
'le_'
'found_'
'best_'
'\\_'
'To_'
'Because_'
' _'
'كنا_'
'بشأن_'
'kill_'
'father_'
'being_'
'3_'
'مجرد_'
'قة_'
'leave_'
'Here_'
'مني_'
'معي_'
'عليها_'
'جيدة_'
'بين_'
'بما_'
'أكون_'
'talking_'
'ion_'
'fucking_'
'family_'
'مهلا_'
'فة_'
'بل_'
'العالم_'
'sir_'
'job_'
'idea_'
'حول_'
'حال_'
'fine_'
'ير_'
'تها_'
'أردت_'
'room_'
'hell_'
'getting_'
'enough_'
'Maybe_'
'10_'
'عمل_'
'بـ_'
'trying_'
'Hi_'
'ص_'
'ذ_'
'ts_'
'ment_'
'للغاية_'
'لديه_'
'isn_'
'baby_'
'[_'
'دة_'
'wasn_'
'understand_'
'te_'
'looking_'
'يد_'
'لكم_'
'كثيرا_'
'فيه_'
'أننا_'
'آسفة_'
'today_'
'three_'
'nice_'
'every_'
'dead_'
'One_'
'يعني_'
'الجميع_'
'الان_'
'أمر_'
'أفعل_'
'For_'
'وأنت_'
'معه_'
'متى_'
'فعلت_'
'عنه_'
'بالتأكيد_'
'w_'
'own_'
'gotta_'
'another_'
'S_'
'جيدا_'
'أم_'
'same_'
'may_'
'حصلت_'
'السيد_'
'whole_'
'went_'
'mother_'
'live_'
'kind_'
'head_'
'ask_'
'able_'
'Wait_'
'Hello_'
'Have_'
' )_'
'مجددا_'
'لما_'
'قتل_'
'دون_'
'انظر_'
'اللعنة_'
'wanna_'
'saying_'
'pretty_'
'ies_'
'friend_'
'T_'
' ( _'
'نفس_'
'فكرة_'
'جميعا_'
'تعال_'
'بشكل_'
'أظن_'
'mind_'
'knew_'
'killed_'
'Sorry_'
'فحسب_'
'جميع_'
'بحاجة_'
'الوحيد_'
'الطريق_'
'الأشياء_'
'5_'
' ,_'
'ود_'
'ستكون_'
'بحق_'
'المنزل_'
'th_'
'move_'
'die_'
'هؤلاء_'
'مل_'
'لكي_'
'بالفعل_'
'--_'
'لى_'
'قليلا_'
'بأنك_'
'الذهاب_'
'أحب_'
'wife_'
'used_'
'try_'
'ers_'
'ago_'
'Or_'
'? - _'
'4_'
'مي_'
'فضلك_'
'رب_'
'تقول_'
'تستطيع_'
'اي_'
'start_'
'many_'
'ce_'
'Of_'
'I'
'وهو_'
'وهذا_'
'قمت_'
'خلال_'
'توقف_'
'تحت_'
'الذين_'
'اريد_'
'أكن_'
'أقول_'
'yet_'
'stay_'
'ry_'
'ie_'
'ation_'
'-- _'
'خذ_'
'السبب_'
'stuff_'
'shit_'
'saw_'
'end_'
' '
'اه_'
'ting_'
'show_'
'hard_'
'"؟_'
'ليلة_'
'رأيت_'
'while_'
'wants_'
'next_'
'meet_'
'أشعر_'
'أ_'
'yourself_'
'took_'
'maybe_'
'c_'
'actually_'
'Thanks_'
'OK_'
'6_'
'لهم_'
'ثانية_'
'بأس_'
'المت'
'المال_'
'الجحيم_'
'اب_'
'use_'
'together_'
'thinking_'
'most_'
'men_'
'lost_'
'friends_'
'0_'
'لكنه_'
'عزيزتي_'
'ذا_'
'أرجوك_'
'which_'
'ready_'
'problem_'
'part_'
'guess_'
'door_'
'\u_'
'Take_'
'لكني_'
'لب_'
'او_'
'الشخص_'
'السيارة_'
'الأمور_'
'اعرف_'
'إلي_'
'أذهب_'
'wouldn_'
'huh_'
'E'
'20_'
')!_'
'يت_'
'مما_'
'تعتقد_'
'بنا_'
'school_'
'run_'
'mom_'
'few_'
'called_'
'boy_'
'alone_'
'O'
'Dad_'
'سي_'
'خ_'
'الحصول_'
'year_'
'x_'
'seen_'
'heard_'
'fuck_'
'en_'
'days_'
'brother_'
'( _'
'يريد_'
'ـا_'
'را_'
'حيث_'
'حة_'
'بسبب_'
'ter_'
'matter_'
'knows_'
'de_'
'Like_'
'لأنني_'
'كبيرة_'
'قل_'
'عد_'
'تبدو_'
'المرة_'
'الباب_'
'الأفضل_'
'اعتقد_'
'إنهم_'
'tonight_'
'thank_'
'se_'
'morning_'
'ke_'
'gave_'
'cause_'
'ble_'
'يني_'
'يعرف_'
'نة_'
'للتو_'
'لكنني_'
'لق_'
'جميلة_'
'ثلاثة_'
'تكن_'
'بأنه_'
'الحياة_'
'myself_'
'gone_'
'7_'
', "_'
'يقول_'
'لابد_'
'لأنه_'
'فتاة_'
'عني_'
'عند_'
'تذهب_'
'النار_'
'الشرطة_'
'ات'
'yes_'
'woman_'
'rs_'
'phone_'
'ne_'
'Stop_'
'يعمل_'
'ون'
'دا_'
'الذى_'
'second_'
'play_'
'ous_'
'nt_'
'Mom_'
'! - _'
'نفسك_'
'مشكلة_'
'مر_'
'سمعت_'
'إي'
'إنك_'
'um_'
'hit_'
'haven_'
'face_'
'case_'
'both_'
' ،_'
'لحظة_'
'جون_'
'تعرفين_'
'الـ_'
'الحب_'
'اد_'
'without_'
'until_'
'true_'
'tomorrow_'
'point_'
'less_'
'ge_'
'body_'
'Dr_'
'D_'
'والآن_'
'منه_'
'معا_'
'فعله_'
'سيارة_'
'اني_'
'الواقع_'
'الرجال_'
'أنتم_'
'أرى_'
'ted_'
'shot_'
'hope_'
'happy_'
'couldn_'
'Nothing_'
' ) _'
'ومن_'
'وم_'
'هى_'
'فر_'
'طوال_'
'طريق_'
'بدون_'
'الرئيس_'
'أن'
'ألم_'
'party_'
'ic_'
'*_'
'# _'
'يب'
'وي_'
'وس_'
'نا'
'لن'
'قام_'
'ذهبت_'
'تنا_'
'تريدين_'
'التحدث_'
'أنهم_'
'working_'
'word_'
'means_'
'ls_'
'happen_'
'gets_'
'et_'
'bring_'
'Tell_'
'ولم_'
'وب'
'منا_'
'للت'
'طة_'
'شيئ_'
'سون_'
'دولار_'
'بأ'
'انتظر_'
'است'
'since_'
'person_'
'minutes_'
'inside_'
'each_'
'dad_'
'bit_'
'bed_'
'8_'
'وم'
'نذهب_'
'لاحقا_'
'لأنك_'
'رقم_'
'رجاء_'
'جميل_'
'جديد_'
'تبا_'
'اوه_'
'القيام_'
'الطريقة_'
'ئ_'
'إلا_'
'أحتاج_'
'worry_'
'ons_'
'kids_'
'check_'
'00_'
') ؟_'
'كله_'
'رفاق_'
'حالة_'
'تتحدث_'
'بعيدا_'
'اي'
'اعلم_'
'اذهب_'
'أخبرك_'
'under_'
'side_'
'once_'
'king_'
'fun_'
'el_'
'ds_'
'also_'
'Bye_'
'يح'
'ور'
'هنالك_'
'نوع_'
'منها_'
'مالذي_'
'للم'
'كبير_'
'غرفة_'
'طريقة_'
'شا'
'تين_'
'بهذه_'
'بد_'
'بالم'
'الخاص_'
'اجل_'
'أى_'
'أريدك_'
'says_'
'question_'
'least_'
'late_'
'kid_'
'daughter_'
'chance_'
'S'
'30_'
'يك_'
'يعلم_'
'يرام_'
'عي_'
'عام_'
'صل_'
'سنوات_'
'رجال_'
'ده_'
'حياتي_'
'حق_'
'حصل_'
'حان_'
'تعلمين_'
'انهم_'
'الف'
'الـ'
'الامر_'
'إليك_'
'أتمنى_'
'telling_'
'such_'
'set_'
'listen_'
'heart_'
'gun_'
'crazy_'
']_'
'Um_'
'See_'
'Really_'
'Excuse_'
'At_'
'15_'
'مر'
'متأكد_'
'غدا_'
'عزيزي_'
'سعيد_'
'سبب_'
'ثر_'
'تو'
'ترى_'
'بالضبط_'
'الموت_'
'اح'
'إن'
'waiting_'
'supposed_'
'pos_'
'needs_'
'hand_'
'deal_'
'b_'
'asked_'
'anyone_'
'age_'
'Me_'
'E_'
'), _'
'يات_'
'نه_'
'مات_'
'ـة_'
'علاقة_'
'عظيم_'
'ذهب_'
'حب_'
'جو_'
'بينما_'
'الي_'
'أحبك_'
'؟ -_'
'tion_'
'ra'
'probably_'
'open_'
'later_'
'ent_'
'9_'
'"، _'
'يم_'
'وني_'
'ــ_'
'طويلة_'
'رك_'
'حين_'
'جي_'
'تحصل_'
'بن'
'بكل_'
'المدينة_'
'الفتاة_'
'الأقل_'
'water_'
'truth_'
'sh_'
'number_'
'ma_'
'having_'
'fight_'
'f_'
'Li'
'His_'
'C'
'A'
'000_'
' ?_'
'وي'
'وقد_'
'نفسه_'
'نع'
'نتحدث_'
'لإ'
'ـ'
'عيد_'
'رض_'
'تت'
'بم'
'بالت'
'الأولى_'
'الأرض_'
'اف'
'أفهم_'
'wish_'
'soon_'
'rest_'
'hate_'
'game_'
'five_'
'] _'
'Co'
'. -_'
'يفعل_'
'يستطيع_'
'وب_'
'نك_'
'متأكدة_'
'ماي'
'مان_'
'كن_'
'قط_'
'قريبا_'
'فرصة_'
'دقيقة_'
'دعني_'
'تعمل_'
'بت'
'بأنني_'
'الخير_'
'الخاصة_'
'أنظر_'
'آ'
'reason_'
'na_'
'hold_'
'everyone_'
'em_'
'comes_'
'almost_'
'Y_'
'. '
') ، _'
' ؟ _'
'يهم_'
'يب_'
'وه_'
'هلا_'
'نوعا_'
'لو'
'لكنك_'
'لح'
'ـا'
'عنها_'
'در_'
'خارج_'
'تى_'
'تني_'
'تن'
'تقوم_'
'اين_'
'اص'
'اسمع_'
'ئي_'
'tried_'
'red_'
'plan_'
'meeting_'
'four_'
'eat_'
'ck_'
'boys_'
'behind_'
'answer_'
'Ta'
'As_'
'يق'
'نهاية_'
'نت'
'مو'
'قف_'
'فيها_'
'فع_'
'طي'
'سيدة_'
'رق_'
'رف_'
'حاولت_'
'بر_'
'اع'
'أولا_'
'أول_'
'أفكر_'
'walk_'
'turn_'
'to'
'story_'
'ster_'
'sit_'
'police_'
'office_'
'married_'
'its_'
'hours_'
'fire_'
'death_'
'book_'
'blood_'
'beautiful_'
'Mm_'
'ونحن_'
'وليس_'
'ولة_'
'وح'
'وجدت_'
'نستطيع_'
'لق'
'لت_'
'كلمة_'
'كال'
'ك'
'فهمت_'
'فر'
'علم_'
'دين_'
'جي'
'جاك_'
'تر_'
'بو'
'بر'
'بالع'
'الإ'
'الأن_'
'ارة_'
'احد_'
'إليه_'
'أخبرني_'
'minute_'
'mine_'
'makes_'
'ling_'
'dy_'
'ass_'
'U'
'R'
'Listen_'
'Give_'
' ‫_'
'♪_'
'يجري_'
'والدي_'
'وأ'
'منهم_'
'مار'
'لين_'
'لاي'
'ـي_'
'ستت'
'سأكون_'
'سأذهب_'
'ري'
'رائعة_'
'تل'
'تست'
'بت_'
'الر'
'الخروج_'
'الجديد_'
'التى_'
'اح_'
'أر'
'u_'
'town_'
'though_'
'met_'
'hey_'
'different_'
'ain_'
'Which_'
'Sure_'
'Ra'
'N_'
'ين'
'يت'
'نفعل_'
'معها_'
'مع'
'لنذهب_'
'لطيف_'
'لديها_'
'لدى_'
'لات'
'قت_'
'فعلا_'
'ضي_'
'صباح_'
'شو'
'سأت'
'ره_'
'دث_'
'حي'
'بق'
'بـ'
'ايها_'
'ايضا_'
'الي'
'العام_'
'الصغير_'
'البيت_'
'الأول_'
'ؤ'
'أحدهم_'
'أحاول_'
'أت'
'z_'
'yours_'
'times_'
'stupid_'
'ss_'
'sister_'
'ring_'
'read_'
'no'
'ni'
'ness_'
'living_'
'key_'
'important_'
'high_'
'co'
'business_'
'afraid_'
'Would_'
'Pa'
'John_'
'50_'
'12_'
'يوما_'
'يس_'
'ورة_'
'متع'
'لـ'
'قي'
'فال'
'غريب_'
'عو'
'عه_'
'عشر_'
'صغيرة_'
'شي'
'سيت'
'ساعة_'
'زي_'
'رؤية_'
'ذات_'
'خا'
'ترا'
'تح'
'بدأت_'
'الطفل_'
'الصباح_'
'الا_'
'الأم'
'اع_'
'استطيع_'
'اج'
'ائ'
'أود_'
'أقصد_'
'أح'
'war_'
'ver_'
'ten_'
'sleep_'
'running_'
'pay_'
'ns_'
'making_'
'lose_'
'looks_'
'feeling_'
'easy_'
'couple_'
'children_'
'brought_'
'P'
'New_'
'Na'
'Miss_'
'H'
'F'
'... '
'يين_'
'يذهب_'
'يتم_'
'وماذا_'
'وك_'
'والدك_'
'مي'
'مست'
'لأجل_'
'كانوا_'
'قا'
'عنك_'
'طويل_'
'طا'
'ضع_'
'شي_'
'شىء_'
'شخصا_'
'سنة_'
'سام_'
'رات_'
'رئيس_'
'رأيك_'
'حياة_'
'بط'
'بج'
'بالر'
'با_'
'بإ'
'اليس_'
'الهاتف_'
'المزيد_'
'المر'
'المدرسة_'
'الل'
'الساعة_'
'البقاء_'
'الآخر_'
'اس_'
'أيتها_'
'أية_'
'أهلا_'
'أنت'
'أصبح_'
'أص'
'أست'
'taking_'
'safe_'
'power_'
'news_'
'moment_'
'line_'
'lie_'
'hurt_'
'human_'
'hot_'
'front_'
'far_'
'eyes_'
'drink_'
'close_'
'city_'
'anymore_'
'Se'
'Fuck_'
'C_'
'ينبغي_'
'يغ'
'يع_'
'وما_'
'وكان_'
'وداعا_'
'وت_'
'وال'
'نية_'
'نعرف_'
'موا'
'منزل_'
'معنا_'
'مش'
'مس'
'مت'
'ما'
'للمنزل_'
'للس'
'للا'
'لد'
'كين_'
'كم'
'عادة_'
'ظننت_'
'صديق_'
'رد_'
'رت_'
'حل_'
'جل_'
'جزء_'
'جديدة_'
'تون_'
'تفكر_'
'تشا'
'تحتاج_'
'تأتي_'
'بك'
'بأي_'
'انني_'
'الله_'
'الغرفة_'
'السيدة_'
'الحرب_'
'البا'
'ئ'
'أكبر_'
'أراك_'
'أخي_'
'}_'
'trust_'
'tra'
'team_'
'serious_'
'seems_'
'outside_'
'na'
'goes_'
'exactly_'
'ally_'
'Re'
'R_'
'Pe'
'O_'
'Mrs_'
'M'
'Jo'
'Hold_'
'Even_'
'Cause_'
'B'
' #_'
'يا'
'وخ'
'والأ'
'واحدا_'
'نفسي_'
'نب'
'مهما_'
'مل'
'للأ'
'لكنها_'
'كون'
'كر_'
'قي_'
'فلت'
'عم_'
'سن_'
'سا_'
'زال_'
'رج'
'دو'
'دقائق_'
'داخل_'
'خطأ_'
'حا'
'جر_'
'جئت_'
'تقريبا_'
'تا_'
'تأ'
'بري'
'السجن_'
'الب'
'اتي_'
'أصدق_'
'young_'
'week_'
're'
'or'
'ny_'
'n'
'light_'
'ful_'
'dinner_'
'child_'
'ca'
'break_'
'between_'
'become_'
'alive_'
'With_'
'N'
'Mo'
'Jesus_'
'يمكنه_'
'يكفي_'
'يست'
'مين_'
'مون_'
'من'
'له'
'لك'
'لف_'
'كت'
'كة_'
'قو'
'ضر_'
'سن'
'سعيدة_'
'زلت_'
'را'
'دعنا_'
'دت_'
'حد_'
'بي'
'به'
'بالإ'
'ان'
'ام'
'المن'
'القا'
'الض'
'التع'
'الأو'
'الأشخاص_'
'اق_'
'إني_'
'إنني_'
'أي'
'أقوم_'
'أقل_'
'أدري_'
'؟ '
'started_'
'somebody_'
'sent_'
'quite_'
'months_'
'ia_'
'ho'
'g'
'fe'
'date_'
'along_'
'Will_'
'Does_'
'Ah_'
' ! _'
'يأتي_'
'وية_'
'وهي_'
'وف'
'وت'
'وة_'
'والم'
'هد_'
'نس'
'نحو_'
'مك_'
'مال'
'لكل_'
'لديهم_'
'كون_'
'عشرة_'
'عا'
'طفل_'
'صاح_'
'سيدتي_'
'سي'
'سر_'
'ستع'
'رية_'
'خل'
'حي_'
'حفلة_'
'جا'
'تش'
'بدأ_'
'او'
'انت'
'الخ'
'التو'
'البعض_'
'الأطفال_'
'اك_'
'اب'
'ئة_'
'إل'
'أم'
'أف'
'أحيانا_'
'أتذكر_'
'speak_'
'ner_'
'needed_'
'murder_'
'inter'
'hmm_'
'himself_'
'gs_'
'ence_'
'drive_'
'der_'
'buy_'
'ar_'
'ahead_'
'Vi'
'Two_'
'T'
'Lo'
'Le'
'Got_'
'Bo'
'Ba'
'يل'
'يع'
'وو'
'وغ'
'هما_'
'هر'
'هار'
'نست'
'نحتاج_'
'نح'
'ميت_'
'مص'
'مد'
'لي'
'لت'
'لان'
'لأ'
'كري'
'قصة_'
'فه_'
'فقد_'
'طلب_'
'صديقي_'
'سنت'
'سم_'
'دكتور_'
'دك_'
'دعونا_'
'حاول_'
'تهم_'
'تفعله_'
'تشعر_'
'بهم_'
'برا'
'بالق'
'بالأ'
'اى_'
'النوم_'
'المع'
'المشكلة_'
'الماء_'
'اللعين_'
'الح'
'الأن'
'اغ'
'اة_'
'أمك_'
'أل'
'أشياء_'
'women_'
'watch_'
'te'
'save_'
'pull_'
'pro'
'pick_'
'pe_'
'os_'
'lives_'
'ler_'
'land_'
'kidding_'
'hi'
'hands_'
'free_'
'er'
'damn_'
'change_'
'ball_'
'Wow_'
'Su'
'Sir_'
'Could_'
'يو'
'يقوم_'
'يخ'
'وين'
'وق_'
'وسي'
'والد'
'هن_'
'ني'
'نكون_'
'نك'
'نريد_'
'مك'
'لر'
'كس_'
'قالت_'
'قا_'
'فين_'
'غا'
'شف'
'ست_'
'سأفعل_'
'رى_'
'رس_'
'حقيقي_'
'جين_'
'جري'
'تحدث_'
'بسرعة_'
'بالن'
'باست'
'الوحيدة_'
'الماضي_'
'القليل_'
'الع'
'الرب_'
'الحق_'
'الجيد_'
'الجنس_'
'اكثر_'
'إست'
'أيا_'
'أخذ_'
'أتعلم_'
'y'
'x'
'white_'
'wa'
'un'
'trouble_'
'questions_'
'over'
'mo'
'ity_'
'husband_'
'half_'
'forget_'
'either_'
'do'
'clear_'
'against_'
'Nice_'
'Jack_'
'Great_'
'From_'
'Fine_'
'Du'
'... - _'
'ينا_'
'يم'
'يك'
'يف'
'يستحق_'
'يد'
'وع'
'وسأ'
'هي'
'نر'
'نت_'
'مه'
'معهم_'
'مساعدتك_'
'مرا'
'مت_'
'لون_'
'لهذه_'
'لب'
'كور'
'كان'
'فلي'
'فا'
'عرفت_'
'شار'
'رسالة_'
'ذي'
'ذاهب_'
'خو'
'تفعلين_'
'تعالي_'
'تعا'
'بير'
'بول_'
'بح'
'انظري_'
'الن'
'المفترض_'
'المساعدة_'
'القضية_'
'الرا'
'الأع'
'ار'
'أيام_'
'أع'
'أش'
'آمل_'
'ves_'
'ure_'
'turned_'
'ton_'
'seem_'
'piece_'
'perfect_'
'middle_'
'les_'
'le'
'lady_'
'hour_'
'ha'
'girls_'
'ff'
'fact_'
'doctor_'
'd'
'cut_'
'ct_'
'bye_'
'ate_'
'Whoa_'
'Ro'
'Po'
'Man_'
'Ki'
'Keep_'
'D'
'7'
'100_'
'يف_'
'يش_'
'ىء_'
'ول'
'وانا_'
'وإ'
'ها'
'نظرة_'
'معرفة_'
'مثلك_'
'لربما_'
'لات_'
'كلها_'
'قم_'
'قط'
'فوق_'
'فل_'
'عندي_'
'عليهم_'
'عليكم_'
'عرض_'
'عج'
'عت_'
'ضع'
'سل_'
'رين_'
'رج_'
'حياتك_'
'حالا_'
'ث'
'توم_'
'تقصد_'
'تعني_'
'تظن_'
'تد'
'تحب_'
'تا'
'بيل_'
'بيت'
'بل'
'بطريقة_'
'بشيء_'
'ببعض_'
'اننا_'
'المل'
'المست'
'المد'
'الما'
'الدم_'
'الحال_'
'اعت'
'از'
'اخ'
'إج'
'أو'
'أصبحت_'
'أخبرتك_'
'أجر'
'أج'
'أب'
'su'
'special_'
'somewhere_'
'six_'
'sa'
'per'
'ning_'
'miss_'
'lu'
'leaving_'
'ff_'
'everybody_'
'du'
'country_'
'cool_'
'che'
'building_'
'bar'
'aren_'
'Ne'
'Ja'
'Di'
'By_'
'Bu'
'Be_'
'- - _'
'* _'
') '
'" "_'
'"'
'يها_'
'يرة_'
'يحتاج_'
'ويل'
'وعندما_'
'وجود_'
'نج'
'مهم_'
'مه_'
'مم'
'مات'
'ماء_'
'لية_'
'لط'
'لسنا_'
'لج'
'قادم_'
'فهو_'
'فت_'
'عدد_'
'عت'
'عب_'
'عاد_'
'صي'
'شر_'
'ش'
'سيف'
'سنكون_'
'ستي'
'ستن'
'سا'
'سؤال_'
'زوج_'
'زة_'
'رؤيتك_'
'ذا'
'جر'
'تي'
'ته'
'تنا'
'تك'
'تـ'
'تع'
'تض'
'تز'
'بلا'
'بخصوص_'
'بالأمر_'
'الموضوع_'
'المش'
'الليل_'
'العا'
'الصغيرة_'
'الاس'
'الإن'
'الأب'
'اف_'
'ارات_'
'إد'
'أتعلمين_'
'آي'
'آنسة_'
'ya_'
'write_'
'worth_'
'win_'
'ti'
'ther_'
'so'
'sign_'
'shoot_'
'promise_'
'nce_'
'meant_'
'm'
'luck_'
'led_'
'ks_'
'ive_'
'hospital_'
'ha_'
'go'
'ge'
'fa'
'dog_'
'ding_'
'clean_'
'ck'
'cha'
'ce'
'catch_'
'asking_'
'air_'
'ad'
'These_'
'Something_'
'Ru'
'On_'
'Huh_'
'David_'
'Che'
'Any_'
'After_'
'5'
'! '
'يج'
'وف_'
'وانت_'
'هر_'
'نين_'
'نم'
'نقوم_'
'نع_'
'ند'
'موعد_'
'معا'
'مجنون_'
'مان'
'مؤ'
'للف'
'لف'
'كرو'
'كا_'
'قول_'
'غري'
'عن'
'ظ_'
'صعب_'
'صح'
'شر'
'سم'
'سـ'
'رون_'
'دى_'
'دل'
'دا'
'خت'
'خاص_'
'حينما_'
'حر'
'تعرف'
'تس'
'ة'
'بور'
'بني_'
'بط_'
'بد'
'بب'
'بالس'
'بار'
'امرأة_'
'النساء_'
'المو'
'القديمة_'
'الق'
'الطعام_'
'الخطأ_'
'الحر'
'الجديدة_'
'التا'
'اش'
'ادة_'
'ئي'
'ئك_'
'إر'
'إحت'
'أنا'
'أعمل_'
'أتعرف_'
'أأنت_'
'آه_'
'، "_'
'weren_'
'ver'
't'
'stand_'
'sick_'
'send_'
'secret_'
'ping_'
'past_'
'nd_'
'missed_'
'message_'
'is'
'inc'
'ic'
'ian_'
'full_'
'fi'
'en'
'bitch_'
'ary_'
'anyway_'
'ance_'
'L_'
'Ha'
'Ga'
'Father_'
'Every_'
'Damn_'
'?"_'
'3'
'200_'
'-'
'" '
' $_'
'يقا'
'يس'
'ياء_'
'وك'
'وشك_'
'وحسب_'
'وا'
'نصف_'
'نات_'
'مـ'
'مض'
'مساعدة_'
'مايكل_'
'لفترة_'
'لان_'
'كي'
'كس'
'فل'
'فك'
'فق'
'فريق_'
'ـو'
'ـــ'
'غي'
'عل_'
'عك_'
'عر'
'ض'
'صد'
'سين'
'سير'
'ستة_'
'سارة_'
'زي'
'ذكر_'
'ذاك_'
'دو_'
'دم_'
'در'
'خلف_'
'جه_'
'تل_'
'تكوني_'
'تصبح_'
'تبقى_'
'تب'
'بون'
'بدلا_'
'بأن'
'اه'
'الو'
'اله'
'النهاية_'
'المس'
'المرأة_'
'الفتيات_'
'الفا'
'الغ'
'العملية_'
'الش'
'السماء_'
'الخارج_'
'الجر'
'الجد'
'الة_'
'البي'
'الإطلاق_'
'الأخ'
'اط'
'اض'
'اخر_'
'إليها_'
'إح'
'أعد'
'أسفل_'
'أخيرا_'
'أخرج_'
'أخر_'
'آر'
'ء'
'ze_'
'worked_'
'wor'
'weird_'
'u'
'tor_'
'th'
'taken_'
'straight_'
'shut_'
'shouldn_'
'shall_'
'sex_'
'seeing_'
'rec'
'others_'
'oh_'
'missing_'
'million_'
'mar'
'longer_'
'known_'
'ked_'
'ine_'
'hi_'
'god_'
'future_'
'funny_'
'food_'
'follow_'
'fault_'
'est_'
'ely_'
'car'
'cannot_'
'Very_'
'So'
'Red_'
'Put_'
'Pi'
'Our_'
'Ooh_'
'Only_'
'No'
'Mar'
'Fa'
'Do'
'Da'
'Cha'
'Call_'
'Ar'
'500_'
'2'
'. (_'
'. "_'
'"?_'
' *_'
'يريدون_'
'ير'
'وكل_'
'وقتا_'
'وصل_'
'وات_'
'هول'
'نو'
'نعلم_'
'نص'
'ناء_'
'موقع_'
'مرات_'
'مدى_'
'لع'
'لتع'
'لأي_'
'كر'
'قـ'
'قر'
'في'
'فو'
'فعلته_'
'ـك_'
'ـر'
'عين_'
'عملية_'
'عملت_'
'عما_'
'عل'
'عدم_'
'شركة_'
'سيحدث_'
'سيئة_'
'سنذهب_'
'سل'
'سك_'
'سأقوم_'
'زو'
'رو_'
'رو'
'رك'
'ذي_'
'دية_'
'خل_'
'خر_'
'حية_'
'حل'
'حق'
'جورج_'
'جرا'
'جد'
'توجد_'
'تفضل_'
'تط'
'تص'
'تر'
'تذكر_'
'تحاول_'
'تبا'
'بيتر_'
'بنفسك_'
'بس'
'بح_'
'بالح'
'با'
'بأنها_'
'المح'
'الماضية_'
'اللحظة_'
'القوة_'
'الفريق_'
'السا'
'الأس'
'الأج'
'اق'
'افعل_'
'اعتقدت_'
'اسمي_'
'ئية_'
'إنتظر_'
'أمام_'
'أطفال_'
'أس'
'أحدا_'
'أث'
'؟"_'
'va'
'tired_'
'step_'
'sta'
'small_'
'ran'
'qui'
'pu'
'per_'
'parents_'
'ned_'
'lying_'
'lucky_'
'list_'
'li'
'la_'
'l'
'information_'
'ice_'
'fish_'
'felt_'
'fast_'
'entire_'
'den_'
'dark_'
'cla'
'choice_'
'ces_'
'certain_'
'box_'
'ant_'
'am'
'ac'
'Wo'
'Three_'
'Si'
'Shit_'
'Remember_'
'Make_'
'La'
'Gu'
'Car'
'About_'
'19'
'- '
'يعود_'
'يؤ'
'ونه_'
'وصلت_'
'وسن'
'وس'
'وبعد_'
'وأح'
'هل'
'هد'
'نيويورك_'
'نسيت_'
'موجود_'
'مباشرة_'
'مازلت_'
'ليت'
'لمدة_'
'لم'
'للق'
'للح'
'للج'
'لعبة_'
'لتو'
'لأني_'
'كلي'
'قوا'
'قه_'
'قل'
'قف'
'قت'
'قبل'
'فيما_'
'فكرت_'
'ــ'
'غ'
'عدت_'
'عبر_'
'عائلة_'
'عا_'
'ضى_'
'ضا'
'شباب_'
'سيح'
'سو'
'سة_'
'سأن'
'داء_'
'خمسة_'
'حالك_'
'جزيلا_'
'تقلق_'
'تق'
'تف'
'تعلمون_'
'تسا'
'تحمل_'
'تحرك_'
'بع_'
'بع'
'بتلك_'
'بان_'
'بالش'
'بالا'
'باك'
'باب_'
'اية_'
'اول_'
'الكا'
'الفر'
'العشاء_'
'الزواج_'
'الد'
'الخا'
'الحديث_'
'التن'
'الت'
'اس'
'اذن_'
'إنت'
'أق'
'أشهر_'
'أرغب_'
'أتيت_'
'we'
'vel'
'using_'
'test_'
'strong_'
'sound_'
'single_'
'sense_'
'road_'
'pi'
'paid_'
'out'
'oc'
'ng'
'names_'
'mouth_'
'mis'
'lin_'
'kes_'
'explain_'
'ea'
'dream_'
'died_'
'cold_'
'careful_'
'York_'
'Tom_'
'Someone_'
'Pro'
'President_'
'Mon'
'Lu'
'Lord_'
'K'
'Isn_'
'Help_'
'Fe'
'Bi'
'B_'
'Al'
'Actually_'
'? '
'6'
'.... _'
'‏_'
'‎_'
'يرت'
'يحاول_'
'يارجل_'
'ويل_'
'ولكني_'
'وق'
'وفي_'
'وراء_'
'وبة_'
'والت'
'واضح_'
'هـ'
'هاي'
'ناد'
'منكم_'
'منح'
'ممكن_'
'مق'
'مستحيل_'
'مثير_'
'مأ'
'للع'
'لس'
'لتح'
'كه'
'كن'
'كلما_'
'كـ'
'كثيرة_'
'كار'
'قطعة_'
'قتلت_'
'فعلها_'
'فظ_'
'فان'
'فأ'
'ـد'
'غبي_'
'عر_'
'عذرا_'
'طو'
'ضاء_'
'صغير_'
'صب'
'شف_'
'سيو'
'سيل'
'ستو'
'ستعمل_'
'ستح'
'زوجتي_'
'زا'
'ريد_'
'رت'
'رب'
'ذر'
'دفع_'
'دع'
'خطة_'
'خاصة_'
'خائفة_'
'حو'
'حن'
'حقيقة_'
'حص'
'جير'
'جوا'
'جل'
'جب_'
'جب'
'تم'
'ترك'
'ترغب_'
'بى_'
'بواسطة_'
'بلى_'
'بلا_'
'بعضنا_'
'بش'
'بخ'
'بأني_'
'بأس'
'اها_'
'الوا'
'النا'
'المكتب_'
'المعلومات_'
'المسا'
'المخدرات_'
'القائد_'
'الط'
'الشارع_'
'السو'
'الدخول_'
'التس'
'الأخيرة_'
'الأخرى_'
'اقول_'
'اسم_'
'اج_'
'ابدا_'
'إعت'
'إص'
'إذهب_'
'إت'
'أهذا_'
'ألي'
'أعطني_'
'أعرفه_'
'أطلب_'
'أربعة_'
'أتحدث_'
'yesterday_'
'whatever_'
'weeks_'
'wedding_'
'watching_'
'ur'
'up'
'touch_'
'till_'
'the'
'talked_'
'sweet_'
'si'
'se'
'proud_'
'possible_'
'pain_'
'pa'
'moving_'
'mi'
'ma'
'law_'
'it'
'ise_'
'ir'
'ions_'
'hide_'
'happens_'
'glad_'
'fix_'
'figure_'
'eye_'
'ey_'
'driving_'
'de'
'da_'
'cur'
'cra'
'cop_'
'contact_'
'ci'
'cho'
'can'
'calling_'
'buddy_'
'beat_'
'angry_'
'Y'
'Whatever_'
'Was_'
'To'
'P_'
'M_'
'Ka'
'J_'
'Ho'
'Everything_'
'Charlie_'
'Anything_'
'? !_'
'25_'
'- (_'
' ؟ '
'يه'
'ينت'
'يـ'
'يش'
'يز'
'يدا'
'يحصل_'
'يان_'
'يار'
'ى'
'وه'
'وكنت_'
'وع_'
'وضع_'
'وأخ'
'هة_'
'نن'
'نق'
'نش'
'ندا_'
'ناه_'
'ميل_'
'مذ'
'مح'
'لمس'
'للو'
'للإ'
'لكن'
'ل'
'كرة_'
'كا'
'قب'
'فـ'
'فات_'
'عالم_'
'طر_'
'طر'
'ضل'
'شهر_'
'شم'
'سيس'
'سيدى_'
'سكا'
'سر'
'ستر'
'ساي'
'ساعات_'
'زل'
'ز'
'رجلا_'
'رائعا_'
'ذو_'
'داي'
'خب'
'حه_'
'حم'
'حد'
'حار_'
'جيمي_'
'جريمة_'
'جاب'
'ثلاث_'
'تقل_'
'تعت'
'تصل_'
'تشارلي_'
'تخ'
'تحدثت_'
'تبدين_'
'تأخذ_'
'بيت_'
'بوب_'
'بلدي_'
'بص'
'بالغ'
'بالخارج_'
'بإمكاني_'
'الوصول_'
'المناسب_'
'المف'
'المستشفى_'
'اللقاء_'
'القل'
'القط'
'القص'
'الطبيب_'
'الصعب_'
'الشا'
'السؤال_'
'الرقص_'
'الدكتور_'
'الجزء_'
'الاست'
'الإست'
'اعد_'
'اظن_'
'از_'
'اتفقنا_'
'أسمع_'
'أخت'
'أخبر_'
'أخ'
'أتو'
'xi'
'whoa_'
'wall_'
'w'
'tt'
'throw_'
'takes_'
'sub'
'street_'
'sing_'
'ship_'
'return_'
'ones_'
'om'
'nu'
'ne'
'mp'
'movie_'
'killer_'
'honey_'
'har'
'girlfriend_'
'fully_'
'forward_'
'f'
'ec'
'dear_'
'da'
'cu'
'control_'
'camera_'
'boo'
'black_'
'bag_'
'back'
'ap'
'ai'
'Sha'
'Or'
'Open_'
'Michael_'
'Ma'
'In'
'Her_'
'Ge'
'Bea'
'Au'
'American_'
'8'
'/_'
'يمكننى_'
'يعد_'
'يض'
'يز_'
'يتع'
'ويت'
'وها_'
'ولكنه_'
'وضعت_'
'وسط_'
'وز_'
'وج'
'واي'
'وان'
'واع'
'واح'
'هب'
'هام_'
'ه'
'نط'
'ميل'
'منزلي_'
'منت'
'منا'
'مكتب_'
'مقا'
'مف'
'مستعد_'
'مجموعة_'
'مج'
'لين'
'للعمل_'
'للحصول_'
'لتس'
'كو'
'كثير_'
'قامت_'
'ـت_'
'عى_'
'عندها_'
'علم'
'عدة_'
'عاما_'
'ظف'
'صة_'
'صاحب_'
'ص'
'شرطة_'
'سيك'
'سيء_'
'ستق'
'سبا'
'سأع'
'زوجتك_'
'زوجة_'
'ذب_'
'ديفيد_'
'دوما_'
'خمس_'
'خم'
'حقيقية_'
'حظ_'
'حاجة_'
'جـ'
'جد_'
'ثل'
'تقا'
'تفا'
'تغ'
'تعيش_'
'تتح'
'بيننا_'
'بو_'
'بعد'
'بتح'
'بالف'
'بالب'
'بات'
'انية_'
'انتظري_'
'الوضع_'
'الها'
'النم'
'النف'
'المي'
'المم'
'المحقق_'
'الكو'
'القاتل_'
'الغد_'
'العودة_'
'العديد_'
'الص'
'السل'
'الذ'
'الأح'
'الآخرين_'
'اخرى_'
'اخرج_'
'اتصل_'
'ابني_'
'ابن_'
'إب'
'أنتي_'
'أمرا_'
'أكره_'
'أك'
'أض'
'أسرع_'
'أذا_'
'أدر'
'أخذت_'
'أحصل_'
'أتريد_'
'works_'
'wonderful_'
'who'
'ut'
'ul'
'stra'
'standing_'
'sol'
'scared_'
'saved_'
'ride_'
'quick_'
'que'
'ps_'
'playing_'
'pass_'
'on'
'music_'
'ms_'
'mistake_'
'learn_'
'lea'
'ky_'
'kiss_'
'ki'
'iti'
'ite_'
'ing'
'happening_'
'hair_'
'fo'
'fla'
'finally_'
'field_'
'fall_'
'excuse_'
'enjoy_'
'eli'
'early_'
'company_'
'class_'
'broke_'
'born_'
'ber'
'a'
'Ya'
'YOU_'
'Those_'
'Shut_'
'Me'
'Last_'
'L'
'K_'
'James_'
'Har'
'H_'
'G'
'Everyone_'
'De'
'4'
'0'
')، (_'
'يي'
'يهتم_'
'ينتهي_'
'يموت_'
'يمة_'
'يق_'
'يفترض_'
'يخبر'
'ولن_'
'وسوف_'
'ود'
'وبعدها_'
'وان_'
'وإذا_'
'و'
'نون_'
'نرى_'
'منى_'
'مطلقا_'
'مضحك_'
'مسا'
'مره_'
'مد_'
'مختلف_'
'متو'
'مبا'
'مال_'
'مازال_'
'ماد'
'ليق'
'لنت'
'لص'
'لام'
'كهذا_'
'كـ_'
'كب'
'كاي'
'كأ'
'قى_'
'قات_'
'قاء_'
'فهم_'
'فقدت_'
'ــا'
'ـر_'
'غر'
'عندك_'
'عملك_'
'ضو'
'ضد_'
'ضة_'
'صورة_'
'شة_'
'سوى_'
'سبق_'
'زن'
'زم_'
'رع_'
'رباه_'
'ران_'
'رأ'
'ذ'
'ديم'
'دليل_'
'دعيني_'
'د'
'حال'
'جهاز_'
'ثي'
'تمزح_'
'تري'
'تج'
'تتم'
'تان_'
'ةال'
'بيني_'
'بين'
'بية_'
'بن_'
'بمو'
'بلي'
'بشدة_'
'بالكامل_'
'ايا'
'اما'
'المرا'
'المؤ'
'الم'
'الكلام_'
'الفتى_'
'الغر'
'العثور_'
'العائلة_'
'الظلام_'
'الصحيح_'
'السم'
'السلاح_'
'الحالة_'
'الجي'
'الثانية_'
'التر'
'البلدة_'
'البر'
'البداية_'
'البد'
'البحر_'
'الان'
'الأل'
'الأسبوع_'
'الأر'
'الآ'
'اعي'
'اسف_'
'ارت'
'اذ'
'إيجاد_'
'إلينا_'
'ألف_'
'أكد_'
'أعيش_'
'أعمال_'
'أشخاص_'
'أز'
'أرا'
'أتع'
'zz'
'welcome_'
'wearing_'
'victim_'
'v_'
'ual_'
'trip_'
'spe'
'space_'
'sounds_'
'sel'
'sco'
'ry'
'ro'
'rather_'
'ra_'
'protect_'
'pin'
'pen'
'ory_'
'oni'
'nt'
'normal_'
'ments_'
'me'
'man'
'loved_'
'likes_'
'ker_'
'kept_'
'jo'
'ial_'
'hy'
'ging_'
'gi'
'ger_'
'forever_'
'evidence_'
'es'
'enti'
'dra'
'dia'
'den'
'cover_'
'comp'
'bi'
'bet_'
'ba'
'ard_'
'ar'
'amazing_'
'We'
'Un'
'Time_'
'Some_'
'Since_'
'Sam_'
'Sa'
'Ri'
'Nobody_'
'NG_'
'He'
'Has'
'FF_'
'Everybody_'
'Col'
'Bar'
'9'
'... ._'
'...'
'.'
', '_'
')}_'
') -_'
' )._'
'ينة_'
'ينا'
'يصبح_'
'يزال_'
'يحت'
'يجعل_'
'يتعلق_'
'وهم_'
'والتي_'
'والب'
'وأن'
'هير'
'هوا'
'هو'
'هاجم'
'نس_'
'مهمة_'
'مساء_'
'مز'
'مدينة_'
'محقة_'
'محاولة_'
'محا'
'للب'
'لكى_'
'لس_'
'لخ'
'لام_'
'لار'
'كف'
'قص'
'قب_'
'فول'
'فه'
'فن'
'فق_'
'فص'
'فترة_'
'فال_'
'فا_'
'ـه_'
'ـد_'
'غار'
'عط'
'عب'
'عائلتي_'
'ع'
'ضي'
'صندوق_'
'صر'
'صديق'
'صار'
'صا'
'شى_'
'شـ'
'شعرت_'
'سلي'
'ستا'
'سال'
'ساعدني_'
'سابقا_'
'سأعود_'
'سأخبرك_'
'زا_'
'رين'
'رف'
'ذب'
'ديل_'
'دور'
'دار'
'خر'
'خ'
'حث_'
'جنون_'
'جعل_'
'جز_'
'جاهزة_'
'جاهز_'
'جاد_'
'ثا'
'توقف'
'تكم_'
'تفهم_'
'تشي'
'تشر'
'ترت'
'بيك'
'بعدها_'
'بالك'
'بالخ'
'بالج'
'بات_'
'انه'
'انة_'
'الهواء_'
'الموا'
'المص'
'المستقبل_'
'المحا'
'اللا'
'القر'
'القديم_'
'الفض'
'الغا'
'الشعور_'
'السلامة_'
'الدا'
'الخي'
'الحقيقي_'
'الثالثة_'
'التم'
'التفكير_'
'التش'
'البط'
'البارحة_'
'الانت'
'الاعت'
'الإنت'
'الأمن_'
'الأكثر_'
'الأبيض_'
'افضل_'
'اري_'
'اخذ'
'احت'
'ابي'
'ائي_'
'إخ'
'أيمكنك_'
'أه'
'أما_'
'أط'
'أسوأ_'
'آ_'
'zo'
'ze'
'yn'
'ya'
'vi'
'usually_'
'tough_'
'top_'
'ste'
'sort_'
'sleeping_'
'sla'
'security_'
'risk_'
'report_'
'rd_'
'rat'
'pulled_'
'pre'
'poor_'
'picture_'
'phe'
'partner_'
'ou'
'ori'
'order_'
'older_'
'offer_'
'month_'
'looked_'
'lli'
'lead_'
'k'
'hoping_'
'hand'
'gar'
'et'
'eri'
'end'
'ed'
'earth_'
'drugs_'
'dirty_'
'dec'
'cri'
'chan'
'cal'
'cH'
'bra'
'board_'
'b'
'ath'
'ated_'
'ans_'
'Te'
'Sounds_'
'Say_'
'Ms_'
'Mother_'
'Mil'
'LI'
'Hi'
'Fo'
'First_'
'F_'
'Cam'
'Bro'
'Bet'
'An'
'America_'
'Am_'
'Ad'
'40_'
'192_'
'190_'
'...?_'
') , _'
' ، (_'
' -- _'
'  _'
'يو_'
'يقولون_'
'يخرج_'
'يحب_'
'يح_'
'وى_'
'ونا_'
'ومن'
'ولكنني_'
'وقال_'
'وط_'
'وط'
'ودي'
'وحد'
'وجد_'
'وبال'
'والق'
'والع'
'والدتك_'
'وار'
'وإلا_'
'وأم'
'وأع'
'هنري_'
'هاه_'
'هادئ'
'نوا'
'نقطة_'
'نسا'
'ممل'
'مكتب'
'محت'
'مب'
'ماهو_'
'ليل'
'للد'
'لشخص_'
'لتق'
'لبعض_'
'لاأ'
'كول'
'كو_'
'كات_'
'قسم_'
'قدم_'
'فيل_'
'فورا_'
'فع'
'فس'
'فرا'
'فتى_'
'فار'
'فائ'
'فأنا_'
'ــا_'
'عيا'
'عها_'
'عـ'
'عض'
'عرض'
'عدا_'
'عان'
'ظي'
'ظهر_'
'طن'
'طف'
'ضرب'
'سيم'
'سيع'
'سيئا_'
'سنفعل_'
'سخيف_'
'سب_'
'سأق'
'سأس'
'سأتصل_'
'زوجك_'
'زوج'
'زم'
'زل_'
'زع'
'رن'
'رض'
'رح'
'رائ'
'رأي'
'دين'
'دن_'
'دم'
'خبر'
'حيال_'
'حما'
'حديث'
'حت'
'حبيبتي_'
'جيل_'
'جة_'
'ثمة_'
'تلا'
'تفهم'
'تعود_'
'تعتقدين_'
'تسل'
'تريدني_'
'تركت_'
'ترك_'
'تدع'
'تخبرني_'
'تاج_'
'تؤ'
'بون_'
'بناء_'
'بقية_'
'بقدر_'
'بف'
'بعمل_'
'برو'
'بتو'
'باي'
'بان'
'بالإضافة_'
'انى_'
'انا'
'امي_'
'النب'
'المنا'
'المق'
'المعا'
'المسيح_'
'المذ'
'المحل'
'المج'
'المب'
'الكبير_'
'الك'
'القصة_'
'القادمة_'
'الفيلم_'
'الضحية_'
'الصد'
'الشاب_'
'الشئ_'
'الداخل_'
'الخطة_'
'الحي'
'الجم'
'الجريمة_'
'الجا'
'التل'
'التخ'
'الار'
'الإس'
'الأق'
'الأص'
'الأش'
'الأخير_'
'اعطي'
'اعد'
'اسمك_'
'ارك'
'احد'
'اثنان_'
'اث'
'ئم'
'إننا_'
'إمرأة_'
'إعتقدت_'
'أنتما_'
'أعود_'
'أخشى_'
'أثناء_'
'أأ'
'آن'
'آلاف_'
'ءا_'
'z'
'wi'
'ways_'
'war'
'vo'
'ved_'
'upon_'
'unless_'
'um'
'ua'
'ture_'
'truck_'
'tor'
'tit'
'thousand_'
'thanks_'
'target_'
'tan'
'surprise_'
'sti'
'ss'
'spot_'
'sold_'
'situation_'
'sin'
'short_'
'shed_'
'sell_'
'seat_'
'rt_'
'ro_'
'rich_'
'rep'
'rel'
'rate_'
'ran_'
'putting_'
'po'
'pe'
'paper_'
'ok_'
'mb'
'lt'
'losing_'
'ley_'
'ke'
'ka'
'ine'
'guilty_'
'ground_'
'giving_'
'ga'
'fu'
'fly_'
'evening_'
'eo'
'em'
'ele'
'el'
'dude_'
'di'
'definitely_'
'deep_'
'dance_'
'crime_'
'count_'
'cops_'
'club_'
'caught_'
'card_'
'cal_'
'bought_'
'ble'
'al'
'Za'
'Yep_'
'Welcome_'
'V'
'Ste'
'Stay_'
'Spe'
'Ser'
'Pu'
'People_'
'Move_'
'Mari'
'Leave_'
'ING_'
'Hmm_'
'Henry_'
'Fi'
'Didn_'
'Daddy_'
'Cr'
'Captain_'
'Ber'
'Be'
'As'
'23_'
'17_'
'1'
', (_'
')..._'
') )_'
' - '
' ) '
'يون_'
'ينه_'
'يظهر_'
'يط'
'يديك_'
'يتح'
'ونت'
'وعا'
'وست'
'وز'
'وث'
'واو_'
'والك'
'هن'
'هج'
'نها_'
'ننا_'
'نـ'
'نعود_'
'نض'
'نخ'
'نبحث_'
'نال'
'مقر'
'مفتوح'
'مغ'
'مشا'
'مختلفة_'
'محل'
'مؤخرا_'
'ليد'
'لويس_'
'لوج'
'لمن_'
'للر'
'لل'
'لد_'
'لأع'
'لأس'
'كوني_'
'كلب_'
'كاس'
'قوية_'
'قول'
'قن'
'قق_'
'قريب_'
'قذ'
'فلن'
'فلا_'
'فز'
'فرانك_'
'فح'
'فت'
'عفوا_'
'عات_'
'ظر_'
'طلب'
'ضم'
'ضل_'
'صو'
'صغير'
'صر_'
'صديقك_'
'شو_'
'سيق'
'سيج'
'سمعت'
'سلا'
'ستيف_'
'ستان_'
'سائ'
'سأج'
'روح'
'راي_'
'راي'
'رار_'
'راج'
'رات'
'رأيت'
'دون'
'دق_'
'دق'
'دري'
'درا'
'داد_'
'دات_'
'خير_'
'حـ'
'حتي_'
'جنا'
'جن'
'جم'
'جع_'
'جع'
'جس'
'جاي_'
'ثير_'
'ثمن_'
'ثة_'
'توقفي_'
'تنف'
'تقي'
'تقدم_'
'تصا'
'ترتدي_'
'تخت'
'تتج'
'بوا'
'برنامج_'
'بربك_'
'بذ'
'بالمر'
'بالكاد_'
'بأننا_'
'الهي_'
'النق'
'الملا'
'المعذرة_'
'المز'
'المبا'
'اللي'
'اللحم_'
'الكرة_'
'الكاميرا_'
'القتل_'
'الفي'
'العميل_'
'العد'
'الطر'
'الصورة_'
'السيطرة_'
'السي'
'الدي'
'الحم'
'الجن'
'الج'
'التح'
'التج'
'البن'
'الاب'
'الإعت'
'الأيام_'
'اكون_'
'اشعر_'
'اسمه_'
'ادر'
'اخر'
'ئه_'
'إم'
'إف'
'إسم'
'إس'
'أول'
'أهتم_'
'أنكم_'
'أمل_'
'أقدر_'
'أقتل'
'أشر'
'أرسل'
'أخرج'
'أحت'
'أتعرفين_'
'أة_'
'آن_'
'ءة_'
'ying_'
'ving_'
've'
'under'
'tri'
'totally_'
'tic_'
'thinks_'
'tal_'
'ta_'
'sy'
'suspect_'
'suppose_'
'super'
'stopped_'
'ster'
'staying_'
'song_'
'son'
'sometimes_'
'seriously_'
's'
'rt'
'record_'
'que_'
'position_'
'ors_'
'ns'
'mon'
'min'
'medical_'
'mat'
'low_'
'lived_'
'lim'
'kitchen_'
'joke_'
'je'
'ish_'
'interest_'
'ings_'
'ind'
'im'
'ili'
'il_'
'iat'
'i'
'hang_'
'gold_'
'ght_'
'fs'
'form'
'fle'
'fell_'
'feet_'
'exc'
'everywhere_'
'ets_'
'est'
'ents_'
'ee'
'eb'
'dying_'
'drunk_'
'dea'
'dar'
'cou'
'college_'
'claim'
'char'
'ch'
'bu'
'brain_'
'beginning_'
'bar_'
'as'
'art_'
'apartment_'
'anywhere_'
'anybody_'
'alright_'
'all'
']؛ _'
'X'
'Too_'
'Think_'
'Sta'
'Never_'
'Mer'
'May_'
'Mac'
'Love_'
'Jimmy_'
'J'
'IT_'
'Hu'
'Honey_'
'Gi'
'Fin'
'En'
'Em'
'Con'
'Bri'
'Bra'
'Bill_'
'Ben_'
'Another_'
'Agent_'
'60_'
'3cH'
'24_'
'230_'
'14'
'- "_'
', '
'% _'
'!"_'
' ♪ ♪ _'
' ♪ _'
' " ؟_'
' " '
'ينف'
'يملك_'
'يشعر_'
'يث'
'يتم'
'يان'
'يئ'
'وهذه_'
'ولو_'
'ولكنك_'
'وكانت_'
'وقعت_'
'وقت'
'وض_'
'وش'
'ودع'
'وجه_'
'وجه'
'وأر'
'وأب'
'هراء_'
'هذة_'
'هان'
'هال'
'نل'
'نفسها_'
'نعمل_'
'نحاول_'
'نجد_'
'نب_'
'ميلاد_'
'ميت'
'موضوع_'
'موض'
'مور'
'منطقة_'
'مليون_'
'مكانك_'
'معذرة_'
'مطا'
'مخدرات_'
'مجال_'
'لوس_'
'لله_'
'للن'
'للش'
'لقد'
'لبي'
'لاح'
'لا'
'لأنها_'
'لأم'
'كين'
'كلانا_'
'كل'
'كع'
'كسر_'
'كب_'
'قوله_'
'قلق_'
'قلته_'
'فيو'
'فلم_'
'فجأة_'
'ف'
'ـي'
'غل'
'عين'
'عمل'
'عم'
'علامة_'
'طبيب_'
'طا_'
'ضح'
'صور_'
'صن'
'صف_'
'صع'
'شقيق'
'شا_'
'سنح'
'سط'
'سأح'
'سأ'
'ريك_'
'رغم_'
'رش'
'راب'
'ذل'
'ذكر'
'ذر_'
'ديف'
'ديد_'
'خي'
'خط'
'خدمة_'
'حياته_'
'حكم'
'حك_'
'حس'
'حز'
'حج'
'جلب'
'جز'
'تيا'
'تود_'
'تو_'
'تموت_'
'تكذب_'
'تقابل'
'تعي'
'تسم'
'تستطيعين_'
'تريد'
'ترد'
'تذ'
'تحا'
'بيلي_'
'بولي'
'بنفسي_'
'بنا'
'بماذا_'
'بلد'
'بكثير_'
'بض'
'بشر'
'بداية_'
'بتر'
'بالو'
'بالمناسبة_'
'بالأمس_'
'بال'
'باط'
'بار_'
'بأنهم_'
'انس'
'انتهى_'
'انتم_'
'امن'
'امر_'
'اليك_'
'النوع_'
'الملابس_'
'المقا'
'المحتمل_'
'اللعبة_'
'الكتاب_'
'القول_'
'الفل'
'العيش_'
'العص'
'الطي'
'الطائرة_'
'السيارات_'
'السن'
'السر'
'الز'
'الرم'
'الحمام_'
'الحل'
'الحفلة_'
'الحا'
'الجانب_'
'التأ'
'البو'
'الأط'
'الأرجح_'
'الأخبار_'
'اكن_'
'اعني_'
'اشتر'
'اسمعي_'
'اسا'
'اخت'
'اته_'
'إما_'
'إلي'
'إعادة_'
'إع'
'إطلاق_'
'إرت'
'أور'
'أنتظر_'
'أقسم_'
'أعرفك_'
'أطلق_'
'أخبر'
'أحمق_'
'أتصل_'
'أبحث_'
'أبا'
'؟ )_'
'}'
'ws_'
'worried_'
'words_'
'wonder_'
'wo'
'walking_'
'wal'
'voice_'
'ub'
'tro'
'tre'
'ter'
'tar'
'stu'
'sou'
'sor'
'sky_'
'sha'
'sca'
'roll_'
'res'
'realize_'
'private_'
'present_'
'plenty_'
'pleasure_'
'planning_'
'pit'
'pha'
'personal_'
'ought_'
'op'
'ole'
'oi'
'mu'
'mp_'
'mber_'
'lle'
'listening_'
'lis'
'lic'
'land'
'iz'
'io'
'in'
'ill'
'id_'
'ia'
'hu'
'hole_'
'her'
'helped_'
'handle_'
'han'
'given_'
'ged_'
'ft_'
'fro'
'finished_'
'fair_'
'ess_'
'dress_'
'dre'
'dep'
'cute_'
'cup_'
'cul'
'count'
'checked_'
'cell_'
'career_'
'cab'
'bs_'
'brothers_'
'boss_'
'boat_'
'bastard_'
'attention_'
'attack_'
'att'
'appreciate_'
'ali'
'ah_'
'agree_'
'ag'
'\'
'Z'
'Wor'
'U_'
'Tu'
'Ti'
'THE_'
'Sit_'
'Ray_'
'RE_'
'Pri'
'Ph'
'Ol'
'Mor'
'Max_'
'Man'
'Looks_'
'Jane_'
'Hurry_'
'Her'
'Hea'
'Guys_'
'George_'
'Frank_'
'Es'
'Dar'
'Ca'
'BE'
'Aw_'
'Ab'
'AND_'
'AN'
'35_'
'11_'
'... ... _'
'.. '
'. ‏_'
')؟ )_'
')'
' ؟ -_'
' :_'
'ينو'
'يلة_'
'يلا_'
'يكي'
'يقة_'
'يعيش_'
'يساعد_'
'يره_'
'يذ'
'يتحدث_'
'يأخذ_'
'وما'
'ولي'
'ولد_'
'ولا'
'وكل'
'وقا'
'وجهك_'
'وتع'
'وتح'
'والا'
'واثق_'
'وأن_'
'هت'
'هام'
'هاء_'
'نيا_'
'نقل'
'نف'
'نعي'
'نظام_'
'نتو'
'مى_'
'موه'
'مها_'
'منتصف_'
'ممتع_'
'ممتاز_'
'ملابس_'
'مفهوم_'
'مـا_'
'معد'
'معت'
'مشاكل_'
'مشاعر'
'مستعدة_'
'مستع'
'مس_'
'مرو'
'مرت'
'مدر'
'مدة_'
'مخب'
'مجنونة_'
'مثلي_'
'مثله'
'مثلما_'
'مث'
'مته'
'متر'
'ماكس_'
'ماس'
'ليم'
'ليف'
'لنق'
'للي'
'للنوم_'
'للك'
'للص'
'لحم_'
'لال'
'لأننا_'
'لأن'
'لأت'
'كير'
'كلنا_'
'كرا'
'كد'
'كت_'
'كايل_'
'كأن'
'قيد_'
'قوة_'
'قنا'
'قع_'
'قطع_'
'قضيت_'
'قديم_'
'قادرا_'
'قاد'
'فيد'
'فيت'
'فو_'
'فكر_'
'فعلتها_'
'فريد'
'فتح_'
'فأنت_'
'ـن_'
'غو'
'عية_'
'عي'
'عندنا_'
'عنا_'
'عمر'
'علي'
'عله_'
'علمت_'
'عش'
'عز'
'عرف_'
'ظر'
'طيب_'
'طي_'
'طويلا_'
'طفلا_'
'طريقي_'
'طبعا_'
'ط'
'ضرب_'
'ضر'
'ضح_'
'ضابط_'
'صل'
'صدر'
'صد_'
'صال'
'شك'
'شعرك_'
'شرا'
'شاهد'
'سيئ_'
'سوزان_'
'سماع_'
'سكو'
'ست'
'ساك'
'سأب'
'زين_'
'زان'
'ريم'
'روما_'
'روز_'
'روا_'
'ركو'
'رحلة_'
'ربي'
'راه'
'راف_'
'رأيته_'
'دول'
'دها_'
'داني_'
'خطوة_'
'حينها_'
'حماية_'
'حمام_'
'حظ'
'حضرة_'
'حسب_'
'حرب_'
'حبيبي_'
'حب'
'ح'
'جين'
'جيري_'
'جن_'
'جدتي_'
'جاء_'
'تير'
'تملك_'
'تلعب_'
'تفو'
'تفقد'
'تعو'
'تع_'
'تسمح_'
'تريده_'
'ترو'
'تخرج_'
'تجار'
'تتوقف_'
'تب_'
'تاي'
'بيس'
'بوب'
'بمجرد_'
'بغ'
'بضعة_'
'بز'
'بدو'
'بجانب_'
'بالداخل_'
'بارك'
'بارد_'
'بئ'
'بإمكاننا_'
'بإمكانك_'
'اهد'
'انج'
'اليس'
'الوغد_'
'النظر_'
'الموسيقى_'
'المنطقة_'
'الممكن_'
'المك'
'المشتبه_'
'المخ'
'الكلمة_'
'الكبيرة_'
'الفوز_'
'العجوز_'
'الطاقة_'
'الصيف_'
'الصندوق_'
'الشري'
'السيئة_'
'السفينة_'
'السج'
'السب'
'الس'
'الدو'
'الدرجة_'
'الخط_'
'التق'
'التف'
'التعامل_'
'التص'
'التد'
'التالي_'
'البق'
'الاحت'
'الإتصال_'
'اكت'
'اقت'
'اعطني_'
'اري'
'اردت_'
'ارجوك_'
'اد'
'احم'
'احب_'
'اثنين_'
'ابنتي_'
'ئل'
'إله'
'إتفقنا_'
'أوس'
'أنـا_'
'أنظروا_'
'أنج'
'أمس_'
'ألف'
'أقو'
'أعد_'
'أصدقائي_'
'أسف_'
'أرسلت_'
'أردت'
'أذ'
'أخف'
'أخذ'
'أخبار_'
'أحمر_'
'أجد_'
'أتى_'
'أتم'
'أترى_'
'أبي'
'آخرين_'
'آخذ_'
'â_'
'za'
'ye'
'worse_'
'willing_'
'wake_'
'unt'
'ula'
'ue'
'tu'
'track_'
'tin'
'thu'
'tes_'
'teacher_'
'steal_'
'station_'
'star'
'st'
'smile_'
'shoes_'
'ses_'
'seconds_'
'scr'
'scene_'
'rin'
'res_'
'relationship_'
'rat_'
'pres'
'pp'
'plant'
'plane_'
'pig'
'phi'
'ped_'
'para'
'os'
'ope'
'oo'
'ol'
'often_'
'of'
'od'
'o'
'non_'
'nk'
'nit'
'nge'
'net'
'near_'
'mot'
'mon_'
'miles_'
'mea'
'mad_'
'lt_'
'letter_'
'lan'
'la'
'keeps_'
'ju'
'ite'
'ile_'
'hy_'
'ht'
'hol'
'history_'
'hip_'
'herself_'
'gue_'
'gra'
'gn'
'gentlemen_'
'gan'
'forgot_'
'foot'
'following_'
'floor_'
'ep'
'e'
'dro'
'doo'
'dle_'
'disa'
'dge_'
'deli'
'damage_'
'completely_'
'color_'
'cle'
'charge_'
'cash_'
'camp_'
'calm_'
'burn_'
'broken_'
'bri'
'bre'
'books_'
'blow_'
'blo'
'birthday_'
'bio'
'ben'
'beg_'
'bea'
'bank_'
'ba_'
'ay_'
'au'
'ato'
'WE'
'Tra'
'TV_'
'Super'
'Star'
'Son_'
'Sometimes_'
'San'
'Rome_'
'Peter_'
'Mi'
'Lea'
'LA'
'Ku'
'Kar'
'Ju'
'Je'
'IS_'
'High'
'Han'
'G_'
'Fl'
'Er'
'El'
'Ed'
'Detective_'
'Dea'
'Chuck_'
'Cho'
'Chi'
'Can'
'Big_'
'Before_'
'Back_'
'Baby_'
'BAR_'
'Arabic_'
'An_'
'Amy_'
'200'
'16_'
'." _'
' )'
'♪ '
'يومين_'
'يلا'
'يقف_'
'يقظ'
'يقتل_'
'يعتقد_'
'يص'
'يسا'
'يرو'
'يدي'
'يدعى_'
'يحر'
'يته_'
'يتج'
'يال_'
'يء_'
'وين_'
'ومع'
'ومة_'
'ولكنها_'
'ولقد_'
'وض'
'وذ'
'هم'
'هـا_'
'هدف'
'هاى_'
'هانك_'
'نيت'
'نور'
'نقل_'
'نخرج_'
'نادي_'
'ميس'
'ميتا_'
'مية_'
'موس'
'مور_'
'موت'
'مهتم'
'منع'
'منزل'
'ممتن'
'ممتعا_'
'ملك'
'ملا'
'مكا'
'مقابل_'
'مـا'
'معى_'
'مصاب'
'مساعدتي_'
'مدهش_'
'متح'
'مايك_'
'ماك'
'مارس'
'ليو_'
'ليسوا_'
'لوقت_'
'لوحد'
'لنفسك_'
'لنج'
'للخ'
'للبيت_'
'للأم'
'لغ_'
'لعين_'
'لطيفة_'
'لشر'
'لش'
'لسي'
'لديك'
'لتر'
'لتج'
'لتت'
'لاق_'
'لإن'
'كوك'
'كه_'
'كنتي_'
'كتبت_'
'قم'
'قض'
'قصيرة_'
'قتل'
'فين'
'فيلم_'
'فسأ'
'فس_'
'غط_'
'غرا'
'غاضبة_'
'غاضب_'
'عمرك_'
'على'
'عقل'
'عطلة_'
'عس'
'عالم'
'ظيف_'
'طق_'
'طرف'
'صنع'
'صـ'
'شين_'
'شون_'
'شكل_'
'شعب'
'شرب_'
'شب'
'سى_'
'سوي'
'سور'
'سه'
'سمحت_'
'سق'
'سف'
'سع'
'ستك'
'ستس'
'سترا'
'زر_'
'ريا'
'روي'
'رم'
'رسائل_'
'رر_'
'رد'
'راس'
'راد'
'راء_'
'ذه'
'ذاهبة_'
'ذار_'
'ديق_'
'دوا'
'دد_'
'دخل_'
'خيار_'
'خص_'
'خرج_'
'خذي_'
'خدم'
'خاصت'
'حاج'
'جور'
'جم_'
'جت'
'جاد'
'جئ'
'ثم'
'ثق'
'ثر'
'تيل'
'تنظر_'
'تناول_'
'تمت_'
'تفضلي_'
'تعرفي_'
'تعب'
'تسر'
'ترين_'
'تجعل'
'تتكلم_'
'تتع'
'تبحث_'
'تام'
'ت'
'بيع_'
'بكم_'
'بطاقة_'
'بشأن'
'بجانب'
'بته'
'بتن'
'بالل'
'باد'
'باب'
'اول'
'اهلا_'
'اني'
'امل_'
'امت'
'الواضح_'
'الهد'
'النقود_'
'النس'
'الموقف_'
'المهمة_'
'الملازم_'
'المض'
'المصا'
'اللو'
'الكون'
'الكلب_'
'الكفاية_'
'الفرق_'
'العر'
'الطابق_'
'الشراب_'
'السابقة_'
'الرحلة_'
'الدماء_'
'الداخلية_'
'الخلف_'
'الخط'
'الحمراء_'
'الحدود_'
'الحد'
'الجيش_'
'الثاني_'
'البشر_'
'الانتظار_'
'الاح'
'الا'
'الإي'
'الإت'
'الأي'
'الأعلى_'
'الأب_'
'اك'
'اقتر'
'اسمها_'
'اسمع'
'ارى_'
'احة_'
'ابي_'
'ابق_'
'ابتعد_'
'ا'
'ئلة_'
'إنه'
'إبق'
'أنى_'
'أننى_'
'أنف'
'أملك_'
'ألو'
'ألا'
'أكل_'
'أقوى_'
'أفترض_'
'أغ'
'أعم'
'أعلى_'
'أعا'
'أظ'
'أطل'
'أريده_'
'أرت'
'أراه_'
'أدا'
'أد'
'أحضرت_'
'أحس'
'أحب'
'أتق'
'أتر'
'آمن'
'آل_'
'آتي_'
'آب'
'worst_'
'win'
'whe'
'warm_'
'ward_'
'visit_'
'vir'
'van_'
'ut_'
'uni'
'una'
'tur'
'tree_'
'train_'
'ties_'
'ten'
'temp'
'teach_'
'table_'
'ta'
'system_'
'sweetheart_'
'surviv'
'support_'
'sts_'
'ssi'
'sna'
'sn'
'smell_'
'sitting_'
'sed_'
'rob'
'ris'
'rig'
'ri'
'responsible_'
'ref'
'race_'
'pressure_'
'possibly_'
'ple'
'places_'
'pictures_'
'patient_'
'passed_'
'park_'
'pan'
'ow_'
'ov'
'ooh_'
'one'
'nose_'
'nobody_'
'nervous_'
'ner'
'neck_'
'natural_'
'nar'
'mor'
'mit'
'mess_'
'men'
'log'
'lo'
'lly_'
'lf'
'let'
'join_'
'ish'
'involved_'
'instead_'
'insane_'
'ins_'
'inf'
'ina_'
'ical_'
'ib'
'hero_'
'hen'
'head'
'hea'
'gui'
'gu'
'government_'
'goddamn_'
'ggy_'
'gen'
'gas_'
'form_'
'force_'
'for'
'foot_'
'file_'
'feelings_'
'feed_'
'fear_'
'exp'
'ex'
'era'
'els_'
'drop_'
'draw'
'disc'
'difference_'
'des_'
'des'
'decision_'
'cy_'
'cs_'
'court_'
'corner_'
'computer_'
'com'
'clu'
'clothes_'
'cks_'
'chief_'
'changed_'
'cer'
'cap'
'bullshit_'
'bru'
'bor'
'bo'
'blind_'
'be'
'bathroom_'
'bas'
'aw'
'appear'
'and'
'alo'
'ak'
'ages_'
'ab'
'X_'
'Watch_'
'Ve'
'Us'
'US'
'Turn_'
'Sur'
'Still_'
'Somebody_'
'Shi'
'Sal'
'RE'
'Par'
'Ok_'
'Mu'
'Mike_'
'Lan'
'LL_'
'LE'
'King_'
'Ke'
'Joe_'
'Jake_'
'Hol'
'Hell_'
'General_'
'Except_'
'Exactly_'
'Doesn_'
'Cor'
'Ci'
'Bur'
'Ant'
'80_'
'18_'
'17'
')} _'
'#_'
'", _'
'! (_'
' --_'
' * _'
'ھ_'
'يمكنكم_'
'يقر'
'يـا'
'يعا'
'يظ'
'يرى_'
'يرا'
'يدي_'
'يحب'
'يجعلك_'
'يجدر_'
'يتي'
'يتوجب_'
'يتن'
'ويمكن'
'وكا'
'وقو'
'وقف_'
'وعي'
'وعدت'
'وصا'
'وسا'
'وري'
'ورا'
'وحيدة_'
'وجدته_'
'وتن'
'وتك'
'وتس'
'وتر'
'والن'
'والش'
'واق'
'واخ'
'وأق'
'هيل_'
'هيك'
'هش'
'هاري_'
'هاتفك_'
'نيل_'
'نكن_'
'نقول_'
'نغ'
'نز'
'نبدأ_'
'ناي'
'ميك'
'موجودة_'
'مناسب_'
'ملت'
'مكانا_'
'مـن_'
'معكم_'
'مط'
'مضي'
'مضت_'
'مشر'
'مسل'
'مسك'
'مسألة_'
'مزي'
'مركز_'
'مرك'
'مخ'
'محق_'
'مح_'
'مجا'
'متف'
'متج'
'متأ'
'ليف_'
'ليب'
'لوسي'
'لنر'
'لمو'
'للمس'
'للذهاب_'
'للحظة_'
'للأبد_'
'لكننا_'
'لقي_'
'لقا'
'لــ'
'لاب'
'كيفية_'
'كيف'
'كوي'
'كوب'
'كلاي'
'كبيرا_'
'كالي'
'قون_'
'قمنا_'
'قليل_'
'قلبي_'
'قضية_'
'قد'
'قابل_'
'قائمة_'
'فيك'
'فير_'
'فية_'
'فيا'
'فون_'
'فم'
'فعلت'
'فض'
'فست'
'فز_'
'فج'
'فتيات_'
'فتا'
'فإن_'
'ـل_'
'غن'
'غضون_'
'غريبة_'
'غادرت_'
'عند'
'عملي_'
'عرف'
'عجوز_'
'عام'
'عالق'
'عاج'
'ظه'
'ظا'
'طه'
'طفال_'
'طبيع'
'طالما_'
'صف'
'صرا'
'صديقتك_'
'صحيحا_'
'شه'
'شك_'
'شغ'
'شخصيا_'
'شت'
'شاهد_'
'شاب_'
'سينا'
'سيص'
'سيد'
'سيخ'
'سيتم_'
'سوء_'
'سمي'
'سماع'
'سكوت_'
'سعيدا_'
'سرقة_'
'سد'
'سح'
'سج'
'ستقوم_'
'ستذهب_'
'سام'
'ساق'
'ساف'
'سار'
'ساد'
'سابق_'
'سأقول_'
'سأر'
'س'
'زوجته_'
'زمن_'
'زع_'
'روك'
'روبرت_'
'روا'
'ره'
'رنا_'
'ركة_'
'رفي'
'رفا'
'رعا'
'رس'
'رجاءا_'
'رأسك_'
'ذو'
'ذاء_'
'ديو'
'ديس'
'دي'
'دوا_'
'دف'
'دب'
'دان_'
'داف'
'داعي_'
'دأ_'
'خن'
'خط_'
'حيا_'
'حمل'
'حفل_'
'حض'
'حسن'
'حث'
'حامل_'
'حار'
'جيمس_'
'جوي_'
'جوي'
'جولة_'
'جه'
'جني'
'جنون'
'جميعهم_'
'جراح'
'جانب_'
'جار_'
'جاءت_'
'جا_'
'ثل_'
'ثان_'
'توقع_'
'تنت'
'تمر_'
'تما_'
'تلف'
'تكم'
'تكا'
'تقلقي_'
'تقف'
'تفعلينه_'
'تفعلي_'
'تــ'
'تغير_'
'تظهر_'
'تشاك_'
'تزال_'
'تزا'
'تري_'
'تذهبين_'
'تخل'
'تحد'
'تجر'
'تجد_'
'تتر'
'تتحرك_'
'تتحدثين_'
'تة_'
'تبع'
'تبر'
'بوبي_'
'بوا_'
'بمق'
'بقي'
'بعضهم_'
'بطل_'
'برين'
'برج'
'بحث'
'بتك_'
'بالرغم_'
'باء_'
'بإن'
'اوي'
'اننى_'
'انتي_'
'الوس'
'الهراء_'
'النظام_'
'المياه_'
'الموافقة_'
'المه'
'الملك_'
'المفتاح_'
'المغ'
'المشاكل_'
'المحيط_'
'المجا'
'الكلية_'
'الكر'
'القي'
'القو'
'القهوة_'
'القلب_'
'القب'
'القانون_'
'القاعدة_'
'القادم_'
'الفط'
'الغير_'
'الغداء_'
'العين'
'العمر_'
'العظ'
'العرض_'
'العامل'
'الطو'
'الصور_'
'الصوت_'
'الصح'
'الشمس_'
'الشر'
'السك'
'السف'
'الست'
'الدم'
'الخمس'
'الحقيبة_'
'الحج'
'الجوا'
'التب'
'التاريخ_'
'الاف'
'الاج'
'الإنتظار_'
'الألم_'
'الأغ'
'الأعمال_'
'الأز'
'الأحيان_'
'الآل'
'افي'
'اعا'
'ارا_'
'ارا'
'اذهبي_'
'اذ_'
'اختف'
'اختر'
'ابن'
'ابل'
'ابت'
'ئل_'
'ئا_'
'إه'
'إنهما_'
'إنظر_'
'إحدى_'
'إثنان_'
'ؤو'
'ؤل'
'أيمكنني_'
'أولئك_'
'أه_'
'أنحاء_'
'أمور_'
'أمر'
'أله'
'ألن_'
'ألعب_'
'ألديك_'
'أقوله_'
'أعدك_'
'أعتذر_'
'أطر'
'أضع'
'أصدقاء_'
'أشع'
'أسمع'
'أسبوع_'
'أرك'
'أخبره_'
'أخبرت_'
'أحضر_'
'أجعل'
'أتص'
'أتريدين_'
'أتح'
'أبو'
'أبن'
'آل'
'؟ ؟_'
'؟ - _'
'zed_'
'ys_'
'ys'
'yd'
'wing_'
'vor'
'vis'
'vie'
'video_'
'vent'
'va_'
'tto'
'tly_'
'thor'
'thi'
'tee'
'tch_'
'swear_'
'surprised_'
'surgery_'
'sun'
'summer_'
'suddenly_'
'student_'
'strange_'
'storm_'
'starting_'
'stars_'
'spo'
'spa'
'soul_'
'shows_'
'shop_'
'ser'
'self_'
'sea_'
'rules_'
'ru'
'rr'
'rio'
'rd'
'rac'
'r'
'qua'
'push_'
'prove_'
'prop'
'por'
'pie_'
'picked_'
'pat'
'parti'
'ow'
'ot_'
'ona'
'numbers_'
'nta'
'noticed_'
'not'
'none_'
'non'
'nk_'
'neg'
'mo_'
'mil'
'mate_'
'mai'
'ly'
'light'
'lan_'
'ku'
'ko'
'ki_'
'keeping_'
'jump_'
'ita'
'ire_'
'ious_'
'invit'
'interesting_'
'int'
'idiot_'
'ide_'
'host'
'hoo'
'honest_'
'hired_'
'he'
'ham_'
'grown_'
'green_'
'gift_'
'gh'
'free'
'fnAdobe_'
'fli'
'filled_'
'fic'
'feels_'
'extra_'
'ex_'
'eu'
'eight_'
'ee_'
'edi'
'ech'
'eating_'
'ear'
'dri'
'doubt_'
'double_'
'dict'
'ded_'
'dam'
'ction_'
'crap_'
'cow'
'continue_'
'connect'
'confess'
'coffee_'
'co_'
'cke'
'chi'
'cell'
'cat_'
'cat'
'cally_'
'calls_'
'cH00'
'c'
'bus_'
'bunch_'
'bun'
'breaking_'
'bottle_'
'bot'
'black'
'bite_'
'bit'
'ban'
'awesome_'
'ants_'
'ane'
'an'
'agent_'
'af'
'action_'
'act_'
'ache'
'ace_'
'accident_'
'[ _'
'Whoo_'
'Wa'
'The'
'Sy'
'Stand_'
'Some'
'Sm'
'Shoot_'
'She'
'Sen'
'Sarah_'
'SO'
'Rea'
'Q'
'Pre'
'Per'
'Paul_'
'PE'
'Over_'
'Once_'
'OF_'
'None_'
'Marc'
'Lee_'
'Ken'
'Kat'
'KE'
'Happy_'
'Gra'
'Gab'
'For'
'Five_'
'FBI_'
'Eve'
'Ea'
'Doctor_'
'Dis'
'Danny_'
'Colonel_'
'Cla'
'Christmas_'
'Christ'
'Check_'
'Ce'
'CO'
'CIA_'
'CA'
'App'
'Anna_'
'Andre'
'Am'
'Alright_'
'AS'
'AL'
'; _'
'36'
'18'
'12'
') (_'
''._'
'$_'
'" ؟_'
' : _'
'‬_'
'– _'
'‎'
'ينظر_'
'ينس'
'يمي'
'يمن'
'يمكن'
'يعجبني_'
'يضا'
'يسبب_'
'يساعد'
'يزي'
'يراقب'
'يجر'
'يتو'
'يتصل_'
'يتب'
'يام'
'يارفاق_'
'يار_'
'ياإلهي_'
'وهناك_'
'وهل_'
'ونني_'
'ومر'
'ولدي'
'وكيف_'
'وكأنه_'
'وصلنا_'
'وسيلة_'
'وحيد'
'وحا'
'وجهة_'
'وبين_'
'والتر_'
'وال_'
'واجب'
'هز'
'هري'
'هرب_'
'هذا'
'هدية_'
'هاو'
'هات_'
'هات'
'نيك_'
'نيا'
'نوع'
'نوا_'
'نني_'
'نغ_'
'نز_'
'نحصل_'
'نبي'
'نان'
'ناق'
'ناس_'
'نأ'
'ميرا'
'مير'
'مول'
'موا_'
'مو_'
'منه'
'مم_'
'ملي'
'ملك_'
'ملة_'
'مكانه_'
'مفاجئ'
'مفاجأة_'
'معر'
'مسدس'
'مستو'
'مزر'
'مريضة_'
'مثل'
'متي_'
'متس'
'مبت'
'ماهذا_'
'مازالت_'
'ماري_'
'ليس'
'ليا_'
'لوي'
'لوحدي_'
'لمي'
'لمت'
'للمساعدة_'
'للتع'
'للأس'
'لغ'
'لطف'
'لرؤية_'
'لر_'
'لج_'
'لاند_'
'لأمر_'
'كيو'
'كيم_'
'كيل'
'كية_'
'كى_'
'كونك_'
'كلو'
'كلارك_'
'كك'
'كش'
'كذبت_'
'كث'
'كتب_'
'كتب'
'كبر'
'كاملة_'
'قومي_'
'قنبلة_'
'قمة_'
'قلبك_'
'قك_'
'قظ'
'قصد'
'قرر'
'قدم'
'قبع'
'قالوا_'
'قادمة_'
'قاتل_'
'قائ'
'فيل'
'فلو'
'فلن_'
'فظ'
'فسوف_'
'فذ'
'فات'
'ــة_'
'ـز'
'غة_'
'غاي'
'عود_'
'عمي'
'عديم'
'عبو'
'عاف_'
'عاء_'
'ظم_'
'طون'
'طم'
'طل'
'طفلي_'
'طف_'
'طائر'
'ضغط_'
'ضب'
'صوت'
'صم'
'صلة_'
'صق'
'صدق'
'صباحا_'
'صالح'
'صاب'
'شيل'
'شياء_'
'شن'
'شط'
'شريك_'
'شخص'
'شاب'
'سويا_'
'سون'
'سوا'
'سو_'
'سنقوم_'
'سنع'
'سمو'
'سما'
'سلم_'
'سك'
'سريعا_'
'سرع'
'ستم'
'ستف'
'ستط'
'ستخ'
'سبي'
'سبعة_'
'ساعد'
'سأك'
'سأغ'
'زوجي_'
'زح'
'زالت_'
'ريك'
'ريق_'
'ريف'
'ريد'
'رنت_'
'رقم'
'رغ'
'رصاص'
'ردة_'
'رحل_'
'رام_'
'راض_'
'رأيتك_'
'ذهب'
'ذة_'
'دني_'
'دمي'
'دماء_'
'دعا'
'دع_'
'درو'
'دان'
'دام_'
'دئ'
'خي_'
'خف'
'خطر_'
'خص'
'خرا'
'خة_'
'حول'
'حوالي_'
'حم_'
'حقيق'
'حصلنا_'
'حري'
'حجم_'
'جيم_'
'جونز_'
'جماع'
'جلي'
'جعلت'
'جدي'
'جدا'
'جان_'
'ثيا'
'ثال'
'ثا_'
'توب'
'تهتم'
'تنس'
'تمن'
'تماع_'
'تما'
'تكونين_'
'تقتل'
'تعط'
'تعرفون_'
'تعرفه_'
'تظن'
'تصر'
'تشف'
'تش_'
'تسمع_'
'تسمع'
'تسبب_'
'تساعد'
'تس_'
'تراه'
'تذكر'
'تدي'
'تخبر_'
'تخا'
'تحمل'
'تحدث'
'تحت'
'تحبين'
'تتو'
'تال'
'تار'
'تأكيد_'
'تأكد_'
'بيع'
'بيد'
'بنفس_'
'بمس'
'بلو'
'بقتل'
'بعيد_'
'بعن'
'بعا'
'بضع_'
'بسيط_'
'بس_'
'بروس_'
'بحي'
'بحر'
'بحا'
'بالما'
'بالط'
'بالأس'
'بإست'
'اور'
'انهض_'
'انق'
'انز'
'امة_'
'اليا'
'الولا'
'الهو'
'الهدف_'
'الني'
'النز'
'النح'
'المقر'
'المساء_'
'المخب'
'المتحدة_'
'الم_'
'اللعنه_'
'اللعب_'
'اللح'
'الكي'
'الكم'
'الكل'
'القيادة_'
'القم'
'القضا'
'القدم_'
'القاضي_'
'الغي'
'الغبي_'
'العم'
'العل'
'العقا'
'العب'
'الصيني'
'الشي'
'الشه'
'السير_'
'السن_'
'السرعة_'
'الزمن_'
'الري'
'الروا'
'الرك'
'الرحب_'
'الدفاع_'
'الدف'
'الخطر_'
'الحين_'
'الحقيقية_'
'الحظ_'
'الجيدة_'
'الجو'
'الجميل_'
'الجمعة_'
'الجزيرة_'
'الثانوية_'
'التحكم_'
'التحقق_'
'البرو'
'البرنامج_'
'الاي'
'الال'
'الاغ'
'الاخت'
'الاثنين_'
'الإحت'
'الأم_'
'الأت'
'الآنسة_'
'اسك'
'استيقظ'
'ارد_'
'ادر_'
'احي'
'احتفظ'
'احاول_'
'اجر'
'اتو'
'اتف'
'ابة_'
'اء'
'ئن'
'ئر_'
'إياه_'
'إق'
'إستع'
'إخت'
'إخبار'
'إبني_'
'أولي'
'أوا'
'أمى_'
'أمسك'
'أمريكا_'
'أقم'
'أقر'
'أعلم'
'أطفال'
'أساس'
'أس_'
'أرض_'
'أرسل_'
'أراهن_'
'أراد_'
'أخل'
'أحضر'
'أجله'
'أجلك_'
'أتس'
'أتت_'
'أبقى_'
'آلي'
'آس'
'ءه'
'؛ _'
'zing_'
'yp'
'you'
'wondering_'
'witness_'
'within_'
'wine_'
'weekend_'
'weapons_'
'ven_'
'val'
'use'
'uring_'
'une'
'ue_'
'type_'
'ty'
'tru'
'trash_'
'trai'
'tick'
'tells_'
'taught_'
'stri'
'stole_'
'sted_'
'star_'
'stand'
'spirit'
'spent_'
'spend_'
'speaking_'
'smoke_'
'slu'
'sli'
'sic'
'share_'
'sh'
'set'
'run'
'rs'
'row_'
'round_'
'rl'
'ril'
'rie'
'rid_'
'ree'
'red'
'rea'
'rb'
'ral_'
'quiet_'
'purpose_'
'pur'
'ps'
'problems_'
'prints_'
'pray'
'pot'
'pla'
'pet'
'pee'
'pay'
'path_'
'pack'
'owe_'
'outta_'
'ort'
'original_'
'omi'
'om_'
'ola'
'officer_'
'obviously_'
'ob'
'nts_'
'nte'
'nick'
'ney_'
'mission_'
'ment'
'mba'
'master_'
'market_'
'mani'
'mal'
'main_'
'mail_'
'machine_'
'lp'
'lor'
'lock_'
'load'
'lla'
'll'
'limit'
'liked_'
'lies_'
'lied_'
'lead'
'lant'
'ladies_'
'knife_'
'killing_'
'ka_'
'jail_'
'ition_'
'island_'
'impossible_'
'imagine_'
'ila'
'ig'
'ied_'
'ie'
'hum'
'huge_'
'hotel_'
'hope'
'honor_'
'hone'
'hm'
'hasn_'
'gotten_'
'good'
'gives_'
'gin'
'gh_'
'gg'
'get'
'frie'
'fra'
'fore'
'finish_'
'fin'
'film_'
'favor_'
'fan_'
'explo'
'evil_'
'energy_'
'enc'
'emp'
'ears_'
'during_'
'drinking_'
'dreams_'
'draw_'
'doors_'
'dom_'
'dis'
'dig_'
'difficult_'
'deserve_'
'dera'
'dangerous_'
'ct'
'created_'
'cost_'
'coo'
'conce'
'con'
'common_'
'comm'
'code_'
'cked_'
'church_'
'cars_'
'carry_'
'busy_'
'bus'
'bur'
'built_'
'bro'
'boyfriend_'
'bb'
'ave'
'ati'
'at'
'ast'
'ase_'
'arms_'
'ami'
'ambulance_'
'across_'
'aci'
'account_'
'access_'
'absolutely_'
'aa'
'Ze'
'Yo_'
'Ye'
'Win'
'Will'
'Whe'
'Want_'
'Walter_'
'WO'
'WA'
'Vic'
'Val'
'Unless_'
'Uncle_'
'Ty'
'Tri'
'Tor'
'Things_'
'Th'
'Tal'
'Should_'
'Santa_'
'Same_'
'SA'
'Run_'
'Rose_'
'RA'
'Police_'
'OU'
'Nin'
'Nick_'
'Nat'
'Mat'
'Mary_'
'MA'
'Los'
'Jim_'
'Jeff'
'Ha_'
'Gro'
'Gr'
'Gl'
'Fre'
'Ex'
'Eric_'
'Enough_'
'English_'
'ES'
'Dude_'
'Dre'
'Des'
'DO'
'DI'
'DE'
'Cu'
'Cra'
'Chu'
'Chief_'
'Cal'
'Bon'
'Bob_'
'Ben'
'Being_'
'Anyway_'
'And'
'All'
'Ai'
'Ag'
'Absolutely_'
'42_'
'38_'
'22_'
'201'
'19_'
'198'
'194'
'... .._'
'.(_'
')،_'
')}'
''''
'! -_'
'™_'
'يمت'
'يله_'
'يلق'
'يكره'
'يقومون_'
'يفي'
'يفو'
'يعرفون_'
'يصل_'
'يسي'
'يسار'
'يزا'
'يدو'
'يدك_'
'يدفع_'
'يدر'
'يدخل_'
'يخص'
'يخت'
'يث_'
'يتغ'
'يال'
'ياف'
'يأت'
'يأ'
'ي'
'وني'
'ونك_'
'ونس'
'ولهذا_'
'وله_'
'ولك'
'ولت'
'وكي'
'وفر'
'وش_'
'ورا_'
'ودو'
'ودا'
'وجهي_'
'وجدنا_'
'وجدتها_'
'وتو'
'وتج'
'والدي'
'والخ'
'والح'
'واش'
'واست'
'وات'
'وأي'
'وأس'
'وأخبر'
'وء_'
'هيه_'
'هيا'
'هز_'
'هدا'
'هبو'
'هاي_'
'هاب'
'نيك'
'نوي'
'نوم'
'ننظر_'
'نما'
'نفعله_'
'نـا_'
'نظري'
'نظر'
'نصي'
'نسي'
'نر_'
'نجحت_'
'نتع'
'نتا'
'نام'
'ناف'
'ميا'
'موج'
'مهن'
'مهمت'
'ملابس'
'مقعد'
'معنى_'
'معـ'
'معظم_'
'مسؤول'
'مزيد_'
'مزحة_'
'مريع'
'مرب'
'مذنب_'
'مدرسة_'
'محم'
'محل_'
'محر'
'متنا'
'متق'
'متزوج'
'متأخر_'
'مبكرا_'
'مالك_'
'مالا_'
'ماتت_'
'ليون_'
'ليلي_'
'ليكون_'
'ليك_'
'لوم'
'لوك'
'لوا'
'لنع'
'لمرة_'
'لما'
'للمش'
'للقيام_'
'للقا'
'للط'
'للسيد'
'للأعلى_'
'لقو'
'لفت'
'لعل'
'لز_'
'لز'
'لديكم_'
'لحق'
'لحة_'
'لتن'
'لتص'
'لايوجد_'
'لانه_'
'لانك_'
'لأح'
'لأب'
'كيت_'
'كوين_'
'كليا_'
'كلي_'
'كلف'
'كلام'
'كفاية_'
'كد_'
'كافي'
'كاذب'
'قيمة_'
'قود'
'قه'
'قلقة_'
'قلب_'
'قضيب'
'قريبة_'
'قررت_'
'قرا'
'قتله_'
'قانون'
'قال'
'قاط'
'قابلت_'
'قابل'
'فيلد_'
'فيك_'
'فيس'
'فون'
'فوضى_'
'فور'
'فندق_'
'فك_'
'فـي_'
'فخ'
'فاع_'
'ـم_'
'ــو'
'غم'
'غس'
'غرفتي_'
'غب_'
'غان'
'غادر'
'عينيك_'
'عيني_'
'عون_'
'عنده_'
'عملا'
'عمك_'
'علو'
'عظم'
'عرو'
'عاهرة_'
'ظل_'
'طين_'
'طلبت_'
'طفل'
'طعن'
'طع_'
'طريقت'
'طرح'
'طبي'
'طبق'
'طب'
'طار_'
'طائ'
'ضرا'
'صيل'
'صوت_'
'صعبة_'
'صال_'
'صادق'
'صا_'
'شل_'
'شق'
'شعور_'
'شعر_'
'شرير'
'شري'
'شرطي'
'شد'
'شاحنة_'
'سينتهي_'
'سيقتل'
'سيغ'
'سيب'
'سيا_'
'سول'
'سنرى_'
'سمع'
'سلو'
'سلم'
'سعد'
'سحقا_'
'ستكونين_'
'ستر_'
'سان'
'ساحة_'
'سألت'
'زين'
'زه'
'زميل'
'زق_'
'زف_'
'زب'
'زال'
'ريب_'
'روب'
'رها_'
'رمي'
'ركن'
'رسمي'
'رست'
'رسا'
'رخ'
'رح_'
'رجل'
'ربة_'
'رالي'
'رال'
'راك'
'رائحة_'
'رؤيت'
'ذه_'
'ذري'
'ديك'
'ديز'
'دير'
'دورك_'
'دور_'
'دن'
'دفعت_'
'دعينا_'
'دعه_'
'درجة_'
'دث'
'دت'
'دام'
'دال'
'خير'
'خليل'
'خلا'
'خسرت_'
'خذ'
'خدم_'
'خد'
'خاطئ_'
'خاب'
'حى_'
'حظا_'
'حص_'
'حساب'
'حركة_'
'حرفيا_'
'حاد_'
'جيم'
'جيب_'
'جو'
'جندي_'
'جميعنا_'
'جمع'
'جمة_'
'جلس'
'جسد_'
'جرب'
'جدو'
'جثة_'
'جبا'
'جال_'
'جائ'
'ج'
'ثور'
'ثو'
'ثمل'
'ثق_'
'ثاني'
'تول'
'توف'
'تمو'
'تلي'
'تكس'
'تقل'
'تعملين_'
'تعلم'
'تعد_'
'تعجب'
'تظنين_'
'تطا'
'تضع_'
'تصرف'
'تشغيل_'
'تشعرين_'
'تسع'
'تستم'
'تخطط_'
'تحم'
'تحل'
'تحديد_'
'تحتاجين_'
'تجعل_'
'تجري_'
'تتعا'
'تتس'
'تبقي_'
'ةل'
'بوي'
'بوع'
'بوس'
'بمكان_'
'بقي_'
'بقوة_'
'بطا'
'بشأنه_'
'بسو'
'بسر'
'بدأ'
'بحق'
'بحالة_'
'بجدية_'
'بتع'
'بتس'
'بالله_'
'بالعمل_'
'بالتو'
'بالتح'
'باع'
'بارع'
'بإمكانه'
'بأمر_'
'بأكمله_'
'انس_'
'اند'
'انتهيت_'
'اما_'
'اليه_'
'الوطن_'
'الورق'
'الوجه_'
'الهجوم_'
'الميلاد_'
'المنتج'
'الملكة_'
'المظ'
'المطبخ_'
'المسدس_'
'المرو'
'المدير_'
'المخي'
'المخا'
'المحكمة_'
'المتع'
'المبنى_'
'الكل_'
'الك_'
'القوا'
'القن'
'القطار_'
'القائمة_'
'الفرصة_'
'الفرا'
'الفتي'
'العن'
'العمليات_'
'العلاج_'
'العاهرة_'
'العامة_'
'الطيران_'
'الطلاب_'
'الطبيع'
'الطاولة_'
'الصو'
'الصف'
'الصب'
'الشخصية_'
'الشاي_'
'الشاحنة_'
'السه'
'السعادة_'
'السرير_'
'السر_'
'الزن'
'الرياضي'
'الرقيب_'
'الرقم_'
'الرسالة_'
'الدور_'
'الخلفي'
'الخل'
'الحال'
'الجه'
'الجلوس_'
'الجل'
'الجبل_'
'الثمن_'
'التوقف_'
'التفا'
'البوابة_'
'البحرية_'
'الامور_'
'الام'
'الاشياء_'
'الاش'
'الاد'
'الاخ'
'الإص'
'الأمريكية_'
'الأسئلة_'
'الأربع'
'الأد'
'اقصد_'
'اقد'
'اقب'
'افعل'
'افتح_'
'افت'
'اطي'
'اض_'
'اشياء_'
'اسر'
'استمتع'
'استخدام_'
'اره_'
'اخبره'
'اخبرك_'
'اتمنى_'
'اتل'
'اتك_'
'اتصلت_'
'اتصال_'
'اتا'
'ابل_'
'ائك_'
'اؤ'
'ئر'
'إسم_'
'إبن'
'أهناك_'
'أهذه_'
'أهد'
'أنه'
'أنقذ'
'أنظري_'
'أنس'
'أموال'
'أمس'
'أمزح_'
'أليكس'
'أكس'
'أقرب_'
'أفعله_'
'أفر'
'أفت'
'أعن'
'أعل'
'أعتقدت_'
'أطول_'
'أشكرك_'
'أدخل_'
'أخو'
'أخذه'
'أخبرنا_'
'أخا'
'أجلي_'
'أجل'
'أثق_'
'أتوقع_'
'أترين_'
'أترك_'
'أترك'
'أت_'
'أبدو_'
'آم'
'آلة_'
'آخ'
'؟ !_'
'، '
'¶ _'
'~ _'
'yl'
'wood_'
'wise_'
'window_'
'wee'
'wear_'
'waste_'
'wash'
'waited_'
'vol'
'viol'
'victims_'
'ven'
'vei'
'ution_'
'uti'
'ute_'
'upstairs_'
'upset_'
'ugh'
'tter_'
'tour_'
'tou'
'top'
'tle_'
'tight_'
'ther'
'themselves_'
'terrible_'
'terr'
'tel'
'tche'
'tast'
'tape_'
'sur'
'sun_'
'suit_'
'stuck_'
'stre'
'store_'
'stick_'
'stick'
'state_'
'spr'
'sma'
'slow_'
'ska'
'simple_'
'short'
'shi'
'shame_'
'seven_'
'service_'
'sen'
'seek_'
'scare_'
'sat'
'san'
'sad_'
'rus'
'roof_'
'ron'
'ridiculous_'
'ric'
'ress_'
'resp'
'rescue_'
'reasons_'
'reach_'
'quarter'
'push'
'protecti'
'promised_'
'prison_'
'pregnant_'
'pr'
'pper'
'post'
'positive_'
'port'
'ph_'
'par'
'pal'
'pai'
'ose'
'orders_'
'ora'
'op_'
'ond'
'ol_'
'og'
'object'
'nuts_'
'nowhere_'
'nn'
'nie_'
'nel'
'nd'
'nci'
'nc'
'nail'
'moved_'
'mes_'
'mention_'
'mas'
'marry_'
'mag'
'lunch_'
'loo'
'locked_'
'level_'
'leg_'
'lee'
'kin_'
'ken_'
'ja'
'ir_'
'ip'
'ins'
'ile'
'ific'
'hundred_'
'hor'
'home'
'holding_'
'hiding_'
'hes_'
'held_'
'hel'
'hei'
'hat'
'han_'
'hadn_'
'gro'
'grab_'
'glo'
'gger'
'gan_'
'ft'
'fool_'
'flight_'
'fire'
'files_'
'except_'
'ew'
'esti'
'esse'
'ess'
'ene'
'ena'
'emergency_'
'ek_'
'ei'
'eg'
'een_'
'ected_'
'duty_'
'drug_'
'dropped_'
'dogs_'
'doc'
'distance_'
'din'
'dig'
'dies_'
'dent'
'del'
'decided_'
'dare_'
'dan'
'cry_'
'cross_'
'cross'
'cousin_'
'cor'
'conversation_'
'conv'
'consider_'
'cock'
'closer_'
'closed_'
'client_'
'cli'
'cit'
'ches_'
'ched_'
'certainly_'
'celebrat'
'cast'
'camp'
'buy'
'bro_'
'bringing_'
'bottom_'
'bomb_'
'bil'
'biggest_'
'beyond_'
'ber_'
'bath'
'bank'
'aware_'
'ava'
'attacked_'
'assume_'
'arrived_'
'ari'
'area_'
'appe'
'anc'
'analy'
'allowed_'
'allow_'
'affect'
'address_'
'add'
'ad_'
'acti'
'acce'
'While_'
'W_'
'Va'
'Tony_'
'Ted_'
'Tea'
'State_'
'Soo'
'Sl'
'Sea'
'Say'
'Sai'
'ST'
'SE'
'Ryan_'
'RO'
'Pol'
'Pat'
'Os'
'Ob'
'Nor'
'Morgan_'
'More_'
'Mmm_'
'Mit'
'McG'
'Mart'
'Mark_'
'Mal'
'Mad'
'Ma_'
'Luc'
'Kyle_'
'Kr'
'KI'
'Jud'
'Ji'
'Jerry_'
'Jason_'
'Has_'
'Hall'
'HA'
'Going_'
'Girl_'
'Gar'
'French_'
'Frank'
'Flo'
'Eu'
'Eng'
'Dun'
'Dan'
'DA'
'Cle'
'Christ_'
'Cat'
'Care'
'Br'
'Boo'
'Besides_'
'Av'
'Att'
'Americans_'
'Ali'
'Ala'
'AC'
'50'
'220_'
'199'
'16'
'11'
'10'
'00'
'..."_'
'- [_'
'))'
') ._'
') - _'
'('
''?_'
'%'
'"..._'
'‫'
'يهمني_'
'يني'
'ينق'
'ينتظر'
'يمكنهم_'
'يمكنها_'
'يمر_'
'يلي_'
'يكم'
'يكف'
'يكت'
'يقولو'
'يقدم'
'يــ'
'يعنى_'
'يعطي'
'يعرف'
'يظن_'
'يسمى_'
'يستطيعون_'
'يري'
'يرا_'
'يدعون'
'يحبك_'
'يتكلم_'
'يتق'
'يتطلب'
'يتس'
'يبدوا_'
'يات'
'ياب'
'يأخذ'
'ويند'
'وير'
'ويا'
'ونها_'
'ولي_'
'ولاد'
'وكما_'
'وكذلك_'
'وكالة_'
'وكأنها_'
'وقتك_'
'وفا'
'وظ'
'وصي'
'وصول'
'ورت'
'ودة_'
'وجي'
'وجود'
'وجبة_'
'وتخ'
'وبد'
'وام'
'والس'
'والد_'
'واس'
'وار_'
'واحده_'
'واء_'
'وأعتقد_'
'وأص'
'وأبوس_'
'هيو'
'هيل'
'هود_'
'همن'
'هق'
'هـل_'
'هـذا_'
'هاه'
'هان_'
'نه'
'ننت'
'نملك_'
'نقود'
'نفو'
'نــ'
'نظ'
'نحن'
'نجاح'
'نته'
'نتم'
'نان_'
'ناب'
'ميز'
'مير_'
'ميد'
'موري'
'موافقة_'
'منف'
'منطقي'
'منش'
'منزله_'
'مناسبة_'
'ممن_'
'ممت'
'ممارسة_'
'مليئ'
'ملكي'
'مقابلتك_'
'مقابلة_'
'مفت'
'مفا'
'مغلق_'
'معلومات_'
'معلم'
'معل'
'مضى_'
'مصاص_'
'مصا'
'مشغول_'
'مشروع_'
'مشاهدة_'
'مسم'
'مستق'
'مرح'
'مدين_'
'مخي'
'محكم'
'محق'
'محظوظ_'
'محامي_'
'مجي'
'مجلة_'
'مثالي'
'متواجد'
'متن_'
'متك'
'مبن'
'مبر_'
'ماير'
'ماهي_'
'مام'
'مالي'
'ماضي'
'ماري'
'ماركو'
'مارك_'
'ليكس_'
'ليح'
'ليا'
'لوك_'
'لوري'
'لهنا_'
'لني_'
'لند'
'لنح'
'لمه'
'لمعرفة_'
'لمح'
'لمج'
'للعا'
'لقة_'
'لعد'
'لعب_'
'لطيفا_'
'لطالما_'
'لحي'
'لحظ'
'لتد'
'لتب'
'لبا'
'لايمكن'
'لاند'
'لاق'
'لاج'
'لإنقاذ'
'لأف'
'كيني'
'كيس'
'كيت'
'كوم'
'كوب_'
'كوا'
'كند'
'كلير_'
'كلم'
'كــ'
'كدت_'
'كتاب_'
'كام'
'كالأ'
'كافية_'
'كأنه_'
'قيل'
'قوت'
'قواعد_'
'قصص_'
'قس_'
'قريب'
'قرار_'
'قر_'
'قدمي'
'قدر'
'قته'
'قتلي_'
'قتلته'
'قاع'
'قادر_'
'قابلت'
'فيلي'
'فيذ'
'فوا_'
'فهم'
'فهذا_'
'فمي_'
'فلوريدا_'
'فف'
'فعلنا_'
'فظيع_'
'فسي'
'فري'
'فرقة_'
'فحص_'
'فاي'
'فان_'
'فاس'
'فائدة_'
'فاء_'
'فإنه_'
'ـــــ'
'ــــ'
'غي_'
'غول'
'غو_'
'غل_'
'غـ'
'غط'
'غرق_'
'غرف'
'غرب'
'غر_'
'عوا_'
'عميل_'
'عمله_'
'علق'
'عقو'
'عق'
'عف'
'عشيق'
'عشاء_'
'عربة_'
'عدنا_'
'عد'
'عجل'
'عال'
'عادي_'
'عادي'
'عائل'
'ظى_'
'ظو'
'ظم'
'ظة_'
'ظاهر_'
'طول_'
'طوا'
'طلق_'
'طلع_'
'طـ'
'طعام_'
'طريق'
'طرد'
'طاب'
'طائرة_'
'ضيف'
'ضمي'
'ضد'
'ضحايا'
'ضافة_'
'ضاجع'
'ضا_'
'صى_'
'صناع'
'صفقة_'
'صت'
'شل'
'شركا'
'شخصية_'
'شارع_'
'شائ'
'سيقول'
'سيط'
'سيجعل'
'سية_'
'سياس'
'سيأ'
'سنو'
'سنم'
'سنج'
'سنا_'
'سكي'
'سكوت'
'سفينة_'
'سفي'
'سري_'
'سرقت_'
'سرق'
'سررت_'
'سجل'
'ستون_'
'ستار'
'سب'
'سان_'
'سامح'
'سؤالا_'
'سأم'
'سأقتل'
'سأد'
'سأحضر_'
'سأحصل_'
'سأتولى_'
'سآخذ'
'زور'
'زح_'
'ريغ'
'ريس_'
'رير_'
'روز'
'رل'
'ركبتي'
'رط'
'رسم'
'رز_'
'رتي_'
'ربا'
'رئ'
'رأسه_'
'ديني'
'ديك_'
'دوم'
'ده'
'دنا_'
'دما'
'دك'
'دقيق'
'دفع'
'دعنى_'
'درس_'
'درس'
'درب'
'دراس'
'دخ'
'دته'
'خلفه'
'خطط_'
'خطط'
'خطب_'
'خبار'
'خادم'
'خائف_'
'حيوان'
'حولك_'
'حوا'
'حلي'
'حضر'
'حصل'
'حرك'
'حرا'
'حدي'
'حدة_'
'حت_'
'حبيب'
'حاليا_'
'حافل'
'جيب'
'جولي_'
'جولي'
'جول'
'جهة_'
'جها'
'جميلا_'
'جف'
'جعلك_'
'جعلت_'
'جسم'
'جرو'
'جرة_'
'جت_'
'جايمس_'
'جاه_'
'جاع'
'جاب_'
'جائزة_'
'ثلاث'
'ثرو'
'تولي_'
'تهديد_'
'تنتظر_'
'تن_'
'تمي'
'تمل'
'تمتلك_'
'تمت'
'تمانع_'
'تلقيت_'
'تكره'
'تقومي_'
'تقلق'
'تقرير_'
'تقديم_'
'تقبل_'
'تفهمين_'
'تفعلون_'
'تفع'
'تعيد'
'تعل'
'تعذ'
'تعد'
'تعتقد'
'تعالى_'
'تطو'
'تضرب'
'تشارل'
'تسأل'
'تريدين'
'تذهبي_'
'تدر'
'تدخل_'
'تدا'
'تحقق_'
'تحدي'
'تجم'
'تجاهل'
'تترك_'
'تتذكر_'
'تتخل'
'تتخ'
'تتأ'
'تبي'
'تاريخ_'
'تابع'
'تأخرت_'
'ةم'
'بيني'
'بيضاء_'
'بيا'
'بوسعي_'
'بوسع'
'بوت'
'بلغ'
'بقا'
'بق_'
'بعدما_'
'بعة_'
'بطل'
'برفق'
'برت'
'بدون'
'بداخل'
'بدء_'
'بحو'
'باو'
'باه_'
'بانيا_'
'بالي'
'بالض'
'بالد'
'باق_'
'بارن'
'بابا_'
'بإخ'
'بأنكم_'
'بأمان_'
'بأف'
'انف'
'انظروا_'
'انتبه'
'امو'
'امك_'
'امسك'
'امرا'
'الولايات_'
'الوق'
'الوف'
'الهر'
'النو'
'النقا'
'النجوم_'
'النت'
'المنت'
'المفضل'
'المعد'
'المشر'
'المسرح'
'المسؤول'
'المركزية_'
'المركز'
'المرات_'
'المحامي'
'المتح'
'المباحث_'
'الكرا'
'القوات_'
'القمر_'
'القرية_'
'القرار_'
'القدر_'
'القد'
'القبض_'
'الفعل'
'الفصل_'
'الفت'
'الغضب_'
'العو'
'العلم'
'العقيد_'
'العرب'
'الطبيعي_'
'الطب_'
'الطا'
'الضا'
'الصين_'
'الصف_'
'الصر'
'الصحراء_'
'الصبي_'
'الصا'
'الشهر_'
'الشعر_'
'الشرق'
'الشج'
'السياس'
'السيا'
'السع'
'السابع'
'الزب'
'الرغم_'
'الرسمي'
'الرحيل_'
'الرائع_'
'الخطو'
'الحوا'
'الحلوى_'
'الحرارة_'
'الحديقة_'
'الحب'
'الجول'
'الجنوبي'
'الجميلة_'
'الجثة_'
'الثلج_'
'الثلاثة_'
'الثلاث'
'الثر'
'الثا'
'التحقيق_'
'البيان'
'البلد_'
'البل'
'البص'
'البريطاني'
'البريد_'
'البحث_'
'الباقي'
'البار'
'الاو'
'الانف'
'الاطفال_'
'الإنسان_'
'الإل'
'الإستم'
'الإخت'
'الأوراق_'
'الأنت'
'الأك'
'الأسود_'
'الأست'
'الأحوال_'
'الأحمر_'
'الأبد_'
'اكر'
'افة_'
'اط_'
'اسي'
'ازا'
'ارد'
'ارب'
'ادي'
'ادل'
'ادخل_'
'اخل'
'اخرس_'
'اختار'
'اخبار_'
'احر'
'احتاج_'
'اجه'
'اجع_'
'ابقى_'
'ائل_'
'ئن_'
'ئب_'
'إيما'
'إهد'
'إنسان_'
'إنتهيت_'
'إصلاح_'
'إسمع_'
'إز'
'إخباري_'
'إخبارك_'
'إبنت'
'أيه'
'أوت'
'أوامر'
'أنش'
'أندي_'
'أناس_'
'أمكن'
'أمت'
'ألب'
'أكي'
'أكل'
'أكان'
'أقف'
'أغراض'
'أعمال'
'أعط'
'أعرفها_'
'أعجبت'
'أصل'
'أشك_'
'أشا'
'أسي'
'أسنان'
'أسماء_'
'أسم'
'أستطع_'
'أسابيع_'
'أسألك_'
'أري'
'أرو'
'أرضا_'
'أربع_'
'أدي'
'أدخل'
'أختي_'
'أخبريني_'
'أخبرها_'
'أخبرتني_'
'أحم'
'أحسنت_'
'أحسن_'
'أحد'
'أثر_'
'أتفق'
'أتف'
'أتعتقد_'
'أتظن_'
'أتساءل_'
'أبر'
'آي_'
'آني_'
'آكل'
'zi'
'za_'
'yon'
'writer_'
'wri'
'wre'
'wn_'
'whose_'
'weight_'
'weapon_'
'warrant_'
'warn'
'walked_'
'wait'
'vision_'
'usual_'
'ust'
'us'
'urn'
'urg'
'ures_'
'ur_'
'unre'
'unit'
'und_'
'uct'
'ually_'
'u200f'
'twice_'
'twi'
'turns_'
'trip'
'trick_'
'tric'
'trial_'
'trans'
'too'
'tongue_'
'tin_'
'tia'
'ths_'
'throwing_'
'threw_'
'tho'
'third_'
'there'
'therapy_'
'ters_'
'tele'
'tea_'
'tea'
'tat'
'talk'
'tal'
'tain_'
'tain'
'swi'
'sweetie_'
'survive_'
'surround'
'suppl'
'super_'
'suicide_'
'success_'
'stolen_'
'stab'
'sse'
'spl'
'sooner_'
'soci'
'smi'
'smell'
'size_'
'sit'
'sis_'
'sign'
'side'
'shots_'
'sho'
'ship'
'shal'
'shak'
'serve_'
'serv'
'sem'
'schedule_'
'scen'
'sake_'
'row'
'rod'
'roa'
'rly_'
'rk'
'respect_'
'rent_'
'ren'
'remind'
'remain_'
'reg'
'realized_'
'reali'
'raise_'
'raci'
'public_'
'psycho'
'prom_'
'project_'
'professional_'
'process_'
'priv'
'prim'
'pric'
'prev'
'pretend_'
'prepar'
'pop'
'poo'
'pon'
'point'
'plu'
'play'
'plans_'
'perfectly_'
'pea'
'p'
'owe'
'ourselves_'
'osi'
'ore_'
'ord'
'oh'
'official'
'notice_'
'nine_'
'nds_'
'nce'
'nas'
'mus'
'mpe'
'mountain_'
'moni'
'mm'
'military_'
'mi_'
'memory_'
'memories_'
'mel'
'med_'
'mate'
'match_'
'manager_'
'manage'
'maid_'
'magic_'
'loves_'
'lon'
'lls_'
'ller'
'lit'
'lines_'
'len'
'lect'
'leaves_'
'leader_'
'lawyer_'
'laugh'
'late'
'lar'
'lam'
'lad'
'lab_'
'ks'
'kill'
'kie_'
'kh'
'kee'
'ji'
'j'
'invent'
'insurance_'
'impr'
'imm'
'ill_'
'il'
'if'
'ically_'
'hurry_'
'hungry_'
'house'
'hom'
'hem'
'helping_'
'hearing_'
'heading_'
'hat_'
'gua'
'grow_'
'group_'
'grat'
'gosh_'
'god'
'gla'
'ger'
'general_'
'games_'
'fur'
'fucked_'
'freak'
'forg'
'flo'
'fit_'
'fired_'
'fingers_'
'fighting_'
'ffic'
'fer'
'faith_'
'fail'
'fact'
'experience_'
'expe'
'examine'
'ett'
'ete'
'escape_'
'enter'
'ens'
'ended_'
'ell'
'effect'
'ef'
'drive'
'dressed_'
'don'
'dollars_'
'doctors_'
'dl'
'divorce_'
'distr'
'detective_'
'destroy_'
'der'
'defend'
'dee'
'deb'
'crying_'
'cru'
'crow'
'crew_'
'create_'
'covered_'
'corn'
'confi'
'con_'
'committe'
'color'
'colo'
'coa'
'cking_'
'cia'
'choose_'
'ced_'
'caused_'
'care'
'cam'
'burned_'
'burg'
'bullet_'
'bull'
'bul'
'boring_'
'bone_'
'bomb'
'blue_'
'blow'
'block_'
'bla'
'bike_'
'bigger_'
'bell'
'bbe'
'based_'
'bang'
'balls_'
'awful_'
'aus'
'aunt_'
'atu'
'ator_'
'ations_'
'asleep_'
'ars'
'arm_'
'arm'
'are'
'app'
'ano'
'anni'
'alt'
'ale'
'agreed_'
'advice_'
'actual_'
'accept_'
'abs'
'\u _'
'You'
'Wr'
'WI'
'WH'
'Try_'
'Tha'
'Tar'
'TH_'
'TH'
'TE'
'Sw'
'Sun'
'Stu'
'Str'
'Sol'
'Scr'
'Sch'
'Ros'
'Ran'
'RI'
'Previously_'
'Pas'
'Next_'
'NE'
'Morning_'
'Min'
'Mas'
'Majesty_'
'MY_'
'Lor'
'Liv'
'Lisa_'
'Lieutenant_'
'Leo_'
'Kill_'
'Jun'
'Jess'
'Jer'
'Ins'
'IN'
'Hun'
'House_'
'Honor_'
'Hear'
'Gree'
'Grace_'
'Gor'
'Glad_'
'GO'
'Fu'
'Friday_'
'Forget_'
'Find_'
'Elizabeth_'
'Ele'
'Ei'
'Eddie_'
'EN'
'Dri'
'Den'
'Cli'
'Chinese_'
'Casey_'
'Cas'
'Bus'
'Burn'
'Boy'
'Bla'
'Better_'
'Bas'
'Ban'
'BU'
'BO'
'At'
'Angel'
'Andy_'
'Aah_'
'='
'97'
'3cH00'
'26_'
'20'
'...._'
'... (_'
'.'_'
'. ♪'
',"_'
'*'
')... _'
')"'
'' '
'''
'"!_'
'" "'
' ،'
' ¶_'
' ~'
' ... '
' . '
' , (_'
' *'
' ! '
'‏ '
'يوني'
'يوا'
'ينني_'
'ينجح_'
'ينج'
'ينتظر_'
'يلم'
'يلت'
'يكونوا_'
'يقي'
'يقل'
'يفه'
'يـة_'
'يعملون_'
'يعتمد_'
'يطر'
'يضحك_'
'يض_'
'يشت'
'يشبه_'
'يسع'
'يستطع_'
'يرك'
'يرسل'
'يرتدي'
'يدين'
'يده_'
'يدة_'
'يتوقف_'
'يتها_'
'يترك'
'يتر'
'يبحث_'
'يالها_'
'يالل'
'ويف'
'ويست'
'ويس'
'ويح'
'وو_'
'ومت'
'ولوجيا_'
'ولكنى_'
'ولكن'
'ولدي_'
'ولات'
'ولأ'
'وكأنك_'
'وكأن'
'وقع_'
'وقتها_'
'وفي'
'وعد'
'وعة_'
'وزي'
'وزوج'
'وربما_'
'وحي'
'وحدة_'
'وح_'
'وجدت'
'وجب'
'وث_'
'وتت'
'وتأ'
'واه'
'والذي'
'والده_'
'واك'
'واصل'
'واسع'
'واج_'
'واثقة_'
'واب'
'وأك'
'وأت'
'هه_'
'هه'
'هدف_'
'هتم'
'هاد'
'هاتف_'
'نيم'
'نير'
'نوف'
'ننتظر_'
'نفس'
'نفا'
'نـي_'
'نظيف'
'نصل_'
'نسخة_'
'ند_'
'نجم'
'نجح_'
'نج_'
'نتص'
'ميلي'
'ميتش'
'موقع'
'موق'
'موعد'
'مورغان_'
'مها'
'منك'
'مند'
'منتج'
'منال'
'منازل'
'مكن_'
'مكالمة_'
'مقد'
'مفيد'
'مفتاح_'
'معي'
'معركة_'
'مضطر'
'مصير'
'مصادر'
'مشكل'
'مشروب'
'مشارك'
'مسرور_'
'مستقبل_'
'مسبقا_'
'مزعج_'
'مريض'
'مرض_'
'مرتين_'
'مرتفع'
'مذهل_'
'مدير_'
'مخطط'
'مخط'
'محقا_'
'محظوظين_'
'محاول'
'محامي'
'محادث'
'مجهول'
'مجلس_'
'مجر'
'مجاني'
'متوا'
'متم'
'متل'
'متفاجئ'
'متأكده_'
'مبي'
'ماس_'
'مؤخرة_'
'ليم_'
'ليل_'
'لون'
'لوب_'
'لنفس'
'لنرى_'
'لندن_'
'لمنزل'
'لمقابل'
'للمد'
'للعودة_'
'للز'
'للخط'
'للث'
'للبي'
'لكنهم_'
'لكا'
'لفعله'
'لفعل_'
'لـم_'
'لعب'
'لعا'
'لسو'
'لست'
'لسا'
'لدي'
'لدرجة_'
'لحيات'
'لجن'
'لته'
'لتف'
'لاو'
'لاعب_'
'لاشيء_'
'لاست'
'لاد'
'لإخ'
'لأكون_'
'لأحد_'
'لأجلي_'
'كيد_'
'كوف'
'كوس'
'كنـ'
'كنت'
'كلمات_'
'كلاهما_'
'كلاكما_'
'كز_'
'كريستي'
'كريس_'
'كره'
'كذبة_'
'كح'
'كتل'
'كتاب'
'كانو'
'كامل_'
'كاست'
'كاري'
'كارل'
'كات'
'قين_'
'قيقة_'
'قيا'
'قوي_'
'قلا'
'قق'
'قفز'
'قع'
'قطعت'
'قطار_'
'قضا'
'قصت'
'قس'
'قرأت_'
'قتله'
'قبض'
'قبا'
'قاعدة_'
'قاسي'
'قادرين_'
'قادرة_'
'قائد_'
'قائد'
'فيي'
'فينس'
'فيق_'
'فير'
'فيا_'
'فوت'
'فهي_'
'فهمت'
'فني_'
'فلا'
'فقدان_'
'فقد'
'فقا'
'فعل'
'فضل'
'فصاعدا_'
'فشل'
'فرو'
'فرق'
'فرد_'
'فرانك'
'فرانسيس'
'فد'
'فخور_'
'فجر'
'فاق_'
'فاف'
'فاد'
'فأن'
'ـف_'
'ـب_'
'ـار'
'ـاء_'
'غيره'
'غريبا_'
'غران'
'غرام'
'غت'
'غال'
'عيش'
'عنهم_'
'عمو'
'عملا_'
'عمتي_'
'عليك'
'عكس'
'عقد'
'عظيمة_'
'عص'
'عده'
'عدل'
'عدد'
'عثرت'
'عبقري_'
'عبارة_'
'عاش_'
'عاش'
'عائلتك_'
'ظهرت_'
'ظن'
'ظل'
'ظت'
'ظار'
'طى_'
'طم_'
'طعة_'
'طرق'
'طرا'
'طبيعي_'
'ضية_'
'ضات'
'صوتك_'
'صلي_'
'صرف_'
'صديقة_'
'صحيحة_'
'صحي'
'صح_'
'صبح_'
'صام'
'صائ'
'شيكا'
'شعري_'
'شع'
'شريك'
'شرف'
'شرب'
'شاي'
'سيصبح_'
'سيست'
'سيذهب_'
'سيارته'
'سياد'
'سوك'
'سهلا_'
'سهل_'
'سه_'
'سني'
'سنس'
'سنجد_'
'سمك_'
'سعاد'
'سخ'
'سحر'
'ستيف'
'ستور'
'ستفعلين_'
'ستفعل_'
'ستفعل'
'ستعود_'
'ستد'
'ستبق'
'سبيل_'
'سبب'
'ساند'
'سانتا_'
'سامة_'
'سار_'
'ساب'
'سأل'
'سأعي'
'سأعت'
'سأط'
'سأضع_'
'سأست'
'سأرا'
'سأخ'
'سأترك'
'زيو'
'زيل'
'زو_'
'زه_'
'زن_'
'زلي_'
'زز'
'زر'
'زجاج'
'زت'
'ريي'
'ريتشارد_'
'ريتش'
'رياضي'
'رون'
'روحي_'
'رني_'
'رما'
'ركا'
'رقي'
'رفيق'
'رفة_'
'رط_'
'رسون_'
'رسة_'
'رر'
'رجو'
'رايان_'
'ران'
'رائحته'
'رئيسة_'
'رأس_'
'ذية_'
'ذى_'
'ذن'
'ذكي_'
'ذكريات'
'ذك'
'ذراع'
'ذاهبون_'
'ذاكر'
'ذات'
'دينا'
'ديلا'
'ديق'
'دولارا_'
'دوري_'
'دمو'
'دمة_'
'دلة_'
'دل_'
'دفاع'
'دعوة_'
'دس'
'دخل'
'دجاج'
'دافي'
'خيا'
'خن_'
'خلي'
'خطو'
'خطا'
'خسر'
'خزان'
'خرجت_'
'خدعة_'
'خدا'
'خبر_'
'خان_'
'خاتم_'
'حمي'
'حمق'
'حك'
'حقيقيا_'
'حقيبت'
'حقق'
'حف'
'حظي'
'حصان'
'حش'
'حساس'
'حساب_'
'حزين'
'حدود'
'حبه'
'حانة_'
'حافظ'
'حاضر_'
'جيني_'
'جينا_'
'جيرا'
'جير_'
'جونا'
'جون'
'جوب'
'جليز'
'جعلتن'
'جعل'
'جسد'
'جرائم_'
'جايك_'
'جاه'
'جان'
'جار'
'جأ'
'ثير'
'ثقي_'
'ثب'
'ثار'
'تيه'
'تيري_'
'تيد_'
'تومي_'
'توقفوا_'
'توصل'
'تور'
'توج'
'تواج'
'توا'
'تهي'
'تنق'
'تنفس'
'تنش'
'تنتهي_'
'تمكن_'
'تمع_'
'تمسك'
'تقول'
'تقود'
'تقرأ'
'تقر'
'تقدي'
'تفقد_'
'تفعلها_'
'تفسير_'
'تفج'
'تفت'
'تغي'
'تغل'
'تغادر_'
'تعيش'
'تعطيني_'
'تعرض_'
'تعالوا_'
'تضي'
'تصدق_'
'تشو'
'تشب'
'تسير_'
'تسمعني_'
'تسج'
'تستمع_'
'تستحق_'
'ترين'
'ترم'
'ترق'
'تدخل'
'تحول'
'تحطم'
'تحضر_'
'تحري'
'تتمكن_'
'تتركي'
'تتحدث'
'تبن'
'تبدأ_'
'تاب'
'تأخذ'
'بيو'
'بينه'
'بير_'
'بيتي_'
'بيب_'
'بوم'
'بول'
'بوقت_'
'بود'
'بمن'
'بمك'
'بما'
'بقر'
'بفعل_'
'بعين'
'بسيطة_'
'بسيار'
'بسي'
'براين_'
'براي'
'بحلول_'
'بجد_'
'بتف'
'بب_'
'بالقرب_'
'بالطر'
'بالحي'
'باق'
'باسم'
'بإع'
'بأم'
'بأخذ_'
'ايف'
'اوز'
'اهل'
'اهدأ_'
'انفص'
'انتهينا_'
'امي'
'الين'
'اليمين_'
'الولد_'
'الوزراء_'
'الوحد'
'الواحد_'
'الهند'
'اله_'
'النهر_'
'النظ'
'النص'
'النش'
'النجدة_'
'الموعد_'
'الموسم_'
'الموجودة_'
'المفقود'
'المعل'
'المطاف_'
'المطار_'
'المط'
'المضي'
'المسل'
'المسكين'
'المستش'
'المرت'
'المراقبة_'
'المخل'
'المثير'
'المتعة_'
'اللق'
'اللعينة_'
'اللطيف'
'الكلمات_'
'الكعك_'
'الكتب_'
'الكت'
'الفيدرالية_'
'الفو'
'الفكرة_'
'الغو'
'الغناء_'
'الغريب_'
'العلاقة_'
'العش'
'العسكري'
'الظ'
'الطلاق_'
'الطرق_'
'الصغ'
'الصحي'
'الشيئ_'
'الشم'
'الشك'
'الشقة_'
'الشأن_'
'السكر'
'السفلي_'
'السرية_'
'السري'
'الساق'
'السادس'
'السادة_'
'السابق_'
'الزوج'
'الروس'
'الروح'
'الرصاصة_'
'الرج'
'الراحة_'
'الرابع_'
'الذر'
'الدع'
'الدراسة_'
'الدر'
'الخو'
'الخطب_'
'الخر'
'الخامس_'
'الحمقى_'
'الحكومة_'
'الحكم_'
'الحص'
'الحركة_'
'الحبل_'
'الجنون_'
'الجنسي'
'الجز'
'الجرائم_'
'الجدار_'
'التلفاز_'
'التقرير_'
'التقا'
'التز'
'التدريب_'
'التدخ'
'البندقية_'
'البلاد_'
'البس'
'البح'
'الاول_'
'الاط'
'الاسم_'
'الاستم'
'الات'
'الإف'
'الإر'
'الإب'
'الأمل_'
'الأمريكي_'
'الأفلام_'
'الأف'
'الأساس'
'الأحمق_'
'الأحداث_'
'الأث'
'ال'
'اكم'
'اكتشفت_'
'افكر_'
'اعل'
'اعط'
'اضطررت_'
'اصي'
'اصبحت_'
'اشر'
'استمع_'
'استدع'
'ارس'
'ادو'
'ادا'
'اختي'
'اخبرني_'
'اخبر'
'احضر_'
'احتر'
'احتجت_'
'اجم'
'اجلس_'
'اجل'
'اتيت_'
'اتي'
'اته'
'اتنا_'
'اتم'
'اتفاق'
'اترك'
'ابنت'
'ابق'
'ابا'
'ئو'
'ئد'
'ئت'
'إير'
'إياك_'
'إنها'
'إنجل'
'إنته'
'إنتظري_'
'إليزابيث_'
'إلتق'
'إكت'
'إعطائ'
'إض'
'إشارة_'
'إستم'
'إستط'
'إذهبي_'
'إختار'
'إتصل_'
'إبتعد'
'أيمكن'
'أيم'
'أيك'
'أيـ'
'أون'
'أولاد_'
'أولاد'
'أوف'
'أوصل'
'أهمية_'
'أهم_'
'أني'
'أنقذت_'
'أنفسنا_'
'أنظ'
'أنتى_'
'أنتهي'
'أناني'
'أمان'
'أمام'
'أكذب_'
'أقدم_'
'أعي'
'أعذر'
'أعت'
'أصدقائك_'
'أصدقائ'
'أصدق'
'أشبه_'
'أسمي'
'أسب'
'أسا'
'أسئلة_'
'أسأل_'
'أره'
'أرف'
'أرادت'
'أذن'
'أدع'
'أخبري'
'أخبرته'
'أحـ'
'أحر'
'أحدث'
'أحبها_'
'أحببته'
'أجب_'
'أثر'
'أتفهم_'
'أتري'
'أبدأ_'
'أؤمن_'
'أؤ'
'آنا_'
'آلا'
'آخر'
'،(_'
'،'
'yo_'
'yle'
'xe'
'wrote_'
'wl'
'wind_'
'whi'
'wer_'
'vy'
'visit'
'vin_'
'vid'
'vat'
'van'
'ute'
'uncle_'
'ult'
'ul_'
'ug'
'ues_'
'ture'
'tun'
'tting_'
'truly_'
'treat'
'trapped_'
'track'
'toilet_'
'tl'
'tive_'
'tip_'
'tions_'
'tie_'
'throat_'
'thro'
'threat_'
'thin_'
'text_'
'tests_'
'testi'
'tail_'
'tac'
'sy_'
'stories_'
'sto'
'ssor'
'sses_'
'squ'
'spoke_'
'spi'
'spect'
'specific'
'source'
'snow'
'sm'
'slo'
'skin_'
'skill'
'ski'
'sk'
'singing_'
'signal_'
'sia'
'shu'
'shoulder'
'shel'
'sey_'
'several_'
'sentence_'
'sen_'
'selling_'
'seemed_'
'sect'
'sec'
'sea'
'scu'
'screaming_'
'sand'
'rule_'
'rope_'
'rop'
'roo'
'rn'
'rma'
'rk_'
'rise'
'rif'
'ries_'
'ric_'
'revi'
'revenge_'
'return'
'retr'
'ret'
'rest'
'resi'
'rence_'
'rem'
'regret_'
'records_'
'reas'
'rais'
'rain'
'quickly_'
'py_'
'pt'
'proper'
'proof_'
'program_'
'pride_'
'pretending_'
'pret'
'presen'
'pound'
'pos'
'port_'
'plus_'
'ple_'
'plat'
'planet_'
'pid'
'phy'
'perm'
'perhaps_'
'past'
'pass'
'paint_'
'pack_'
'oy'
'owner_'
'ood_'
'offered_'
'odd'
'ocean_'
'notes_'
'nis_'
'ni_'
'new'
'nec'
'nea'
'nder'
'nda_'
'nch_'
'nch'
'nation_'
'nat'
'named_'
'murdered_'
'murder'
'ms'
'model'
'mod'
'mmy_'
'mme'
'mini'
'milli'
'merc'
'may'
'mass'
'marke'
'mad'
'lyn_'
'lve'
'loy'
'lower'
'lovely_'
'loss_'
'lonely_'
'location_'
'load_'
'lm'
'lip'
'lia'
'less'
'lear'
'leak'
'ld'
'kicked_'
'kick_'
'just'
'jury_'
'judge_'
'jo_'
'iss'
'ise'
'ior_'
'investigation_'
'investigat'
'interview_'
'intend'
'inten'
'innocent_'
'iness'
'impressive_'
'imp'
'imate_'
'ima'
'ient_'
'ici'
'hurts_'
'hun'
'hon'
'homework_'
'hit'
'hin'
'hill'
'hero'
'hed_'
'heaven_'
'hanging_'
'hall'
'hai'
'gy_'
'guard_'
'grant'
'grade_'
'gol'
'gle_'
'glass_'
'ghte'
'ghost'
'gge'
'gay_'
'fus'
'fuck'
'fresh'
'fre'
'fort'
'flu'
'flow'
'flat_'
'finding_'
'fied_'
'female_'
'fat'
'face'
'explosi'
'expected_'
'expect_'
'exist_'
'exh'
'event'
'escap'
'ery_'
'ered_'
'enem'
'ends_'
'encou'
'eme'
'eless_'
'educat'
'edit'
'dy'
'dump'
'dumb_'
'duck'
'driver_'
'down'
'dou'
'doll'
'doin_'
'discuss_'
'dge'
'develop'
'determine'
'dete'
'design'
'demon'
'deliver'
'decide_'
'dealer'
'ddy_'
'damned_'
'daddy_'
'curious_'
'credit_'
'crack'
'correct_'
'corr'
'conta'
'confused_'
'condition'
'concerned_'
'complicated_'
'complete_'
'community_'
'comment'
'close'
'clos'
'civil'
'circu'
'cie'
'chu'
'chose_'
'chil'
'chest'
'cheer'
'center_'
'cent'
'cel'
'cares_'
'cake_'
'cH000000'
'buried_'
'buildings_'
'build_'
'bridge_'
'breathing_'
'bow_'
'bored_'
'bon'
'bly_'
'blur'
'bir'
'bie_'
'belie'
'beer_'
'bee_'
'bear_'
'bat'
'basi'
'bad'
'ax'
'attend_'
'attempt'
'assum'
'asshole_'
'ass'
'art'
'arrest_'
'appointment_'
'appl'
'apologize_'
'apart_'
'ant'
'anno'
'alle'
'air'
'aine'
'admi'
'addi'
'ach_'
'Yu'
'Yan'
'World_'
'Who'
'White_'
'Whi'
'Water_'
'War'
'Van'
'VI'
'Up'
'Turn'
'Trust_'
'Tru'
'Tou'
'Tommy_'
'Today_'
'Tes'
'TO_'
'TI'
'THE'
'Sweet'
'Sto'
'Steve_'
'Stev'
'Spa'
'Sn'
'Sin'
'Sil'
'Shoo'
'Shar'
'Sel'
'Sav'
'Sat'
'Sar'
'Roy'
'Robert_'
'Richard_'
'Ric'
'Rep'
'Rei'
'Reg'
'Ready_'
'Randy_'
'Prince'
'Pretty_'
'Phil_'
'Perhaps_'
'Paris_'
'Out_'
'Oo'
'Officer_'
'Oc'
'Nu'
'Ni'
'NO'
'Mus'
'Mul'
'Mou'
'Most_'
'Mommy_'
'Mine_'
'Men_'
'Medi'
'May'
'Mama_'
'Mak'
'Maggie_'
'Made'
'ME_'
'Ly'
'Louie_'
'Long'
'Little_'
'Lind'
'Lex_'
'Leslie_'
'Lar'
'Kor'
'Justi'
'Jones_'
'Jew'
'Jenn'
'Jan'
'II_'
'Hoo'
'Hom'
'Holy_'
'Helen'
'Hank_'
'Hang_'
'Hale'
'Grand'
'Go'
'Getting_'
'German_'
'GE'
'Fran'
'Fil'
'Fift'
'Ev'
'Easy_'
'Earth_'
'EN_'
'Dra'
'Dor'
'Doo'
'Dia'
'Deb'
'Daniel_'
'Dan_'
'DNA_'
'Count'
'Congratulations_'
'Clar'
'Claire_'
'City_'
'Chloe_'
'Chic'
'Chan'
'Carl'
'Cai'
'CH'
'CD'
'Bull'
'Boy_'
'Aunt_'
'Arm'
'Ari'
'Ap'
'Anyone_'
'Any'
'Amen_'
'Although_'
'Af'
'Ac'
'AR'
';_'
':'
'99'
'90'
'89'
'80'
'61_'
'48_'
'45_'
'41'
'28'
'195'
'14_'
'... . _'
'., _'
'. . _'
'--'
'- !'
'," _'
'* '
'""_'
'" ، _'
'" .'
'! "_'
' ؟ - _'
' {\\_'
' .. '
' . -_'
'يير_'
'يون'
'يومي_'
'يومك_'
'يود_'
'يما'
'يلعب_'
'يلبس'
'يقود'
'يفعله_'
'يفت'
'يـن'
'يعني'
'يعجب'
'يطل'
'يصدق_'
'يصد'
'يسو'
'يسر'
'يستع'
'يسب'
'يسأل'
'يريده_'
'يريد'
'يرف'
'يرغب_'
'يران'
'يرات_'
'يذهبون_'
'يدع'
'يخط'
'يحي'
'يحق'
'يحس'
'يحتاجون_'
'يحبون_'
'يحا'
'يجعله'
'يجعلني_'
'يجدو'
'يجد_'
'يجة_'
'يتحرك_'
'يبن'
'يبقى_'
'ياله_'
'يالله'
'ياعزيز'
'ياص'
'ياسيد'
'ياج'
'يأكل'
'ويه_'
'ويلي_'
'ويع'
'ويص'
'ويج'
'ونو'
'ونن'
'وموا'
'ومس'
'ولدت_'
'وكم_'
'وقل'
'وقر'
'وقة_'
'وقالت_'
'وفو'
'وعم'
'وعلى_'
'وظيفتي_'
'وظيفة_'
'وضعه'
'وضا'
'وصف'
'وص_'
'وص'
'وشأن'
'وري_'
'ورك_'
'ورق'
'ورد'
'ودا_'
'وحيدا_'
'وجهه_'
'وجد'
'وج_'
'وبي'
'وايت_'
'والف'
'والرج'
'والدتي_'
'والدته'
'وافق'
'واذ'
'وائ'
'وإن'
'وأنه'
'وأط'
'وآ'
'هيلين_'
'هية_'
'هون_'
'هوب'
'هنـ'
'هند'
'هنا'
'هذه'
'هذ'
'هدي'
'هجوم'
'هجر'
'هب_'
'هايد'
'هانا_'
'هائل'
'نيو_'
'نيو'
'نول'
'نهر'
'ننس'
'نقد'
'نقا'
'نق_'
'نفع'
'نفت'
'نغادر_'
'نظرت_'
'نظا'
'نضع_'
'نشا'
'نسيان'
'نذ'
'ندو'
'نحو'
'نحك'
'نجو'
'نجعل'
'نتمكن_'
'ناك_'
'نارية_'
'نائم'
'ميه'
'مينا'
'مين'
'ميلاد'
'ميع_'
'ميتش_'
'ميتة_'
'ميا_'
'موند_'
'مون'
'موت_'
'مواق'
'موافق_'
'مهنت'
'منظ'
'منزلك_'
'منخفض'
'مميزة_'
'ممكن'
'ممثلة_'
'ملو'
'مله_'
'ملع'
'ملايين_'
'مكي'
'مقي'
'مقط'
'مقدم'
'مــ'
'مغفل'
'مغادرة_'
'معقول_'
'مطعم_'
'مطر'
'مضحكا_'
'مصاص'
'مشوش'
'مشكلتك_'
'مشترك'
'مشتبه'
'مسي'
'مسموح_'
'مسرحي'
'مسرح_'
'مسر'
'مستوى_'
'مستح'
'مساعدت'
'مسار'
'مسؤولي'
'مريض_'
'مريح'
'مررت_'
'مرحلة_'
'مرتب'
'مرار_'
'مذكرة_'
'مدين'
'مدي'
'مدمن'
'مخيف_'
'مخل'
'مختل'
'مخاطر'
'محي'
'محبوب'
'محب'
'محارب'
'مثيرة_'
'مثالي_'
'متوتر'
'متا'
'مباراة_'
'ماني_'
'مالية_'
'ماف'
'ماع'
'مارشال_'
'ماج'
'ماا'
'مئات_'
'مؤخرتك_'
'ليله_'
'ليلا_'
'ليع'
'ليست'
'ليسا_'
'لير'
'ليخ'
'لولا_'
'لوحة_'
'لوح'
'لوت_'
'لنفسي_'
'لمكان'
'لمك'
'للهول_'
'لله'
'للخروج_'
'للحظ'
'للتح'
'لل_'
'لكما_'
'لقتل'
'لفا'
'لعن'
'لعائل'
'لسنوات_'
'لسل'
'لسبب_'
'لسان'
'لحفل'
'لحس'
'لث'
'لتي_'
'لتي'
'لتش'
'لبو'
'لايمكن_'
'لال_'
'لاك_'
'لاع'
'لازال_'
'لابأس_'
'لاا'
'لإخبار'
'لأر'
'لأج'
'لأ_'
'لآ'
'كمي'
'كلم_'
'كلار'
'كلاب_'
'كفى_'
'كفا'
'كسي'
'كسرت_'
'كريه'
'كريم_'
'كرس'
'كذب_'
'كتف'
'كتابة_'
'كاليفورنيا_'
'كالم'
'كالف'
'كارتر_'
'كارا'
'كاثرين_'
'كاتب'
'كابتن_'
'كاب'
'كأنك_'
'قوم_'
'قولي_'
'قني_'
'قميص'
'قليلة_'
'قلي'
'قله'
'قلة_'
'قضيت'
'قضاء_'
'قص_'
'قرب'
'قذرة_'
'قديمة_'
'قدوم'
'قده'
'قدما_'
'قبيح'
'قبي'
'قبلت_'
'قانونية_'
'قام'
'قاع_'
'قارب'
'فيف'
'فنج'
'فنا'
'فصل_'
'فرص'
'فران'
'فخور'
'فخ_'
'فجر_'
'فتح'
'فتات'
'فاق'
'فإن'
'فإ'
'ـى_'
'ـون'
'ــل_'
'ــــــ'
'ـدي_'
'ـح'
'غير'
'غيب'
'غلب'
'غبي'
'غب'
'عودة_'
'عني'
'عنى_'
'عنق'
'عمي_'
'عملي'
'عمره_'
'عمت'
'علمت'
'علك_'
'علاج'
'عك'
'عقلي_'
'عقلك_'
'عقد_'
'عقا'
'عـل'
'عصي'
'عزيزى_'
'عذر'
'عدي'
'عدا'
'عثر'
'عامل_'
'عالية_'
'عار'
'عادية_'
'ظهره'
'ظه_'
'ظام_'
'طلق'
'طلبه'
'طلا'
'طل_'
'طفلة_'
'طعم'
'طت'
'طبيب'
'طبق_'
'طار'
'ضه_'
'ضن'
'ضم_'
'ضـ'
'ضرور'
'ضربت'
'ضحية_'
'ضج'
'صيا'
'صول_'
'صنع_'
'صب_'
'صاحبة_'
'شير'
'شيا'
'شهور_'
'شكر'
'شقت'
'شقة_'
'شعور'
'شرو'
'شرف_'
'شرطي_'
'شراب'
'شراء_'
'شديد'
'شخصيت'
'شتا'
'شان'
'شاك'
'شاذ_'
'شاء_'
'سينج'
'سيمون'
'سيقوم'
'سيفو'
'سيس_'
'سيري'
'سير_'
'سيحصل_'
'سيبقى_'
'سوية_'
'سوني'
'سوا_'
'سنف'
'سنعود_'
'سنر'
'سنتين_'
'سميث_'
'سلط'
'سلام'
'سلاح_'
'سقطت_'
'سفر'
'سط_'
'سراح'
'ستيفان'
'ستص'
'ستش'
'ستست'
'ستذهب'
'سبت'
'سباق_'
'سانت'
'ساحر'
'سأو'
'سألته'
'سأريك_'
'زير_'
'زيارة_'
'زوي_'
'زواج'
'زمة_'
'زق'
'زفاف'
'زبا'
'زاك_'
'زار'
'زابي'
'ريق'
'ريج'
'ريت_'
'ريبيكا_'
'ريبي'
'ريا_'
'روج_'
'رهم_'
'رفض'
'رغبت'
'رص'
'رحيل'
'رحلت'
'ربـ'
'رايت'
'رال_'
'راحة_'
'راح'
'راج_'
'راء'
'رؤ'
'رأسي_'
'رأسها_'
'رأس'
'ر'
'ذنب'
'ذك_'
'ديه'
'ديل'
'ديكس'
'دير_'
'ديث_'
'ديت'
'دونا'
'دولي'
'دود_'
'دماغ'
'دراي'
'دتي_'
'دايف'
'داك'
'داخلي'
'داخل'
'دائم'
'دائ'
'دأ'
'خيار'
'خول_'
'خلاف'
'خفيف'
'خطير_'
'خطيب'
'خطر'
'خطتك_'
'خطت'
'خطاب_'
'خض'
'خرج'
'خرة_'
'خذها_'
'خدمه'
'خدع'
'خالي'
'حياتها_'
'حوله'
'حوا_'
'حلوى_'
'حلو'
'حلة_'
'حقيقى_'
'حقي'
'حزام_'
'حرة_'
'حر_'
'حذا'
'حبك_'
'حبس'
'حاملا_'
'حاس'
'حادثة_'
'جيل'
'جيسي'
'جيده_'
'جوع'
'جورد'
'جهز'
'جنسي'
'جميل'
'جميعكم_'
'جلبت_'
'جك_'
'جعة_'
'جسدي'
'جزيرة_'
'جزئ'
'جزءا_'
'جدي_'
'جث'
'جبك_'
'جاي'
'جانبي'
'جالس'
'جاكي_'
'جاز'
'جاري'
'جات'
'جائع_'
'ثنائي'
'ثن'
'ثلاثي'
'تيم'
'توني_'
'توماس_'
'تور_'
'تواصل'
'تهم'
'تنز'
'تنتظر'
'تمكنت_'
'تمر'
'تمثل_'
'تلو_'
'تلقي_'
'تلقي'
'تكلم'
'تكف'
'تكتشف_'
'تقوم'
'تقتل_'
'تفي'
'تفعلو'
'تفس'
'تفتقد'
'تفاصيل_'
'تغيير_'
'تعليق'
'تعرفينه'
'تعرضت_'
'تطلق_'
'تطلب_'
'تضا'
'تصدق'
'تشان'
'تسعة_'
'تستطيع'
'تركيز'
'تركن'
'ترغبين_'
'ترسل'
'ترج'
'ترب'
'تذك'
'تخبرن'
'تحصل'
'تحركوا_'
'تحرك'
'تحدثت'
'تحتفظ_'
'تحبه'
'تحبن'
'تجيب'
'تجلب'
'تجاه'
'تثق_'
'تث'
'تتصرف_'
'تتص'
'تتذكر'
'تبد'
'تاي_'
'تاز'
'تاح'
'تأكل'
'تأخر'
'تأت'
'ةأ'
'بيه'
'بيض'
'بيرن'
'بيرس'
'بيث_'
'بوضع_'
'بوجود'
'بنس'
'بنت'
'بمع'
'بلقائك_'
'بقائ'
'بغي'
'بعي'
'بعمر_'
'بعلا'
'بعق'
'بعض'
'بطول'
'بطريق'
'بطاق'
'بصراحة_'
'بصد'
'بشري'
'بشرا'
'بسهولة_'
'بسب'
'بريد'
'بروك'
'برود'
'برة_'
'برأي'
'بداخل_'
'بدا'
'بحيات'
'بحف'
'بحري'
'بحذر_'
'بتق'
'ببساطة_'
'باي_'
'بامكان'
'بام'
'بالوق'
'بالمست'
'بالعودة_'
'بالطا'
'بالص'
'بالسي'
'بالسك'
'بالحر'
'بالجوار_'
'بالتع'
'بالتحديد_'
'بالبق'
'بالبر'
'بالأش'
'بالأسفل_'
'باس_'
'باري_'
'بارا'
'باح_'
'بائ'
'بإنه'
'بإس'
'بأي'
'بأمر'
'بأخ'
'ب'
'اوا'
'اهي'
'اهتمام'
'انك'
'اند_'
'انتى_'
'انتقل'
'انتظار'
'انتباه'
'انب'
'امل'
'امس'
'امر'
'اليها_'
'اليابان'
'الوقود_'
'الوز'
'الوحش_'
'الوح'
'الوثوق_'
'الوث'
'الهى_'
'النووي_'
'النافذة_'
'النادي_'
'النادل_'
'الميت'
'المهن'
'المهرج'
'المنش'
'المنح'
'المكت'
'المقل'
'المقدس'
'المقد'
'المقبلة_'
'المقابل'
'المغن'
'المغادرة_'
'المعر'
'المطل'
'المطا'
'المشروع_'
'المشاه'
'المشا'
'المستوى_'
'المستحيل_'
'المرء_'
'المدا'
'المخرج_'
'المخاطر'
'المحت'
'المحب'
'المحاولة_'
'المجل'
'المتوسط'
'اللون_'
'الكوا'
'الكنيسة_'
'الكرسي_'
'الكحول_'
'الكبر'
'الكام'
'الكافي'
'القضاء_'
'القرا'
'القدي'
'القدوم_'
'القبع'
'الفيديو_'
'الفوضى_'
'الفور'
'الفندق_'
'الفنا'
'الغرب'
'الغبية_'
'الغابة_'
'العنوان_'
'العنا'
'العمل'
'العليا_'
'العقل_'
'العق'
'العدو'
'العجل'
'العالمية_'
'العاشر'
'العادة_'
'الظه'
'الطويل'
'الطوارئ_'
'الطبي'
'الصيا'
'الصم'
'الصل'
'الصدر'
'الشيو'
'الشوا'
'الشف'
'الشركة_'
'الشرك'
'الشرف'
'الشبك'
'السين'
'السوق_'
'السنة_'
'السمك_'
'السعيد'
'السطح_'
'الساع'
'الساح'
'الزي'
'الزهور_'
'الزناد_'
'الزر'
'الروم'
'الرها'
'الرق'
'الرفاق_'
'الرس'
'الرائد_'
'الرئيسية_'
'الرئيسي_'
'الرئ'
'الرؤ'
'الذك'
'الدعا'
'الدب'
'الخلي'
'الخزان'
'الحمل_'
'الحمض_'
'الحمد_'
'الحلم'
'الحلقة_'
'الحل_'
'الحقير'
'الحف'
'الحائط_'
'الجنود_'
'الجنرال_'
'الجليد_'
'الجسر_'
'الجرس_'
'الجذ'
'الجامعة_'
'الثو'
'الثالث_'
'الث'
'التنفس_'
'التنا'
'التغ'
'التعرف_'
'التظاهر_'
'التصرف_'
'التخلي_'
'التخلص_'
'البيرة_'
'البنك_'
'البنت_'
'البناي'
'البطا'
'البري'
'الاع'
'الاحتيا'
'الاتصال_'
'الإد'
'الأه'
'الأمان_'
'الأمام'
'الأكبر_'
'الأغني'
'الأض'
'الأصلي'
'الأصدقاء_'
'الأسب'
'الأرضية_'
'الأخر_'
'الأخر'
'اكي'
'اكس'
'اقه'
'افهم_'
'افتر'
'اعمل_'
'اعرفه'
'اعتقا'
'اعة_'
'اضطر'
'اصب'
'اسم'
'اسفة_'
'اسحب_'
'استمر'
'استق'
'استر'
'استخدمت_'
'اسبوع'
'اسأل'
'اريده_'
'ارفع'
'ارسل'
'ارجو'
'اراد'
'اذهب'
'ادع'
'ادت'
'اخرجو'
'اختبار_'
'اخبرت'
'احصل_'
'احبك_'
'اجه_'
'اجد_'
'اجتماع_'
'اجتم'
'اثن'
'اتع'
'اتصلي_'
'اترك_'
'اتبع'
'ابه_'
'ابنتك_'
'اال'
'ائه'
'ائنا_'
'ائر'
'ائب_'
'ئه'
'ئف_'
'إيلي'
'إيقاف_'
'إنف'
'إنـ'
'إلى'
'إلـ'
'إكتشف'
'إقتر'
'إغ'
'إط'
'إشت'
'إش'
'إسمه_'
'إستخدام'
'إري'
'إذهبوا_'
'إذ_'
'إخفاء_'
'إخراج'
'إخر'
'إختف'
'إختر'
'إختبار_'
'ؤلاء_'
'ؤ_'
'أين'
'أوك'
'أوقفو'
'أوقف'
'أوقع'
'أود'
'أهي_'
'أهو_'
'أنن'
'أنك'
'أموت_'
'أمه_'
'أمن_'
'أمـ'
'أمامي_'
'ألي_'
'ألم'
'ألق'
'أكرر_'
'أقل'
'أقصى_'
'أفهم'
'أفل'
'أفكار_'
'أغنية_'
'أعيد'
'أعطي'
'أعز'
'أطف'
'أضرب'
'أصابع'
'أشي'
'أشكر'
'أسو'
'أسقط'
'أسفة_'
'أسر'
'أستمر'
'أستحق'
'أسبوعين_'
'أرجو'
'أذني'
'أذك'
'أدعو'
'أدركت_'
'أدرك_'
'أخرس'
'أخر'
'أخبرنى_'
'أحلام'
'أحق'
'أحرق'
'أحببت_'
'أجلس_'
'أجلب_'
'أجب'
'أتي_'
'أتي'
'أتل'
'أتعلم'
'أتسائل_'
'أتخ'
'أتج'
'أبوس_'
'أبقي'
'أبعد_'
'أب_'
'آمين_'
'آدم_'
'آبي_'
'؟ ._'
'Â'
'{\\'
'zu'
'zer_'
'zen_'
'yt'
'yo'
'ymo'
'yer_'
'yard_'
'yan'
'worker'
'woods_'
'wn'
'with'
'witch'
'wire'
'winning_'
'wild_'
'where'
'west_'
'weather_'
'wea'
'water'
'wag'
'vou'
'violent_'
'vill'
'victory_'
'vers'
'value_'
'v'
'usi'
'urs'
'univers'
'unf'
'understood_'
'unco'
'unc'
'ume_'
'ume'
'ui'
'uc'
'tz_'
'tz'
'turning_'
'tune'
'tter'
'tt_'
'truc'
'treatment_'
'treat_'
'training_'
'towe'
'toward'
'touche'
'tle'
'tis_'
'tie'
'tic'
'threaten'
'thoughts_'
'tha'
'terrifi'
'temper'
'tank_'
'talent_'
'sword_'
'switch_'
'swing'
'sweat'
'supp'
'suggest_'
'suffer'
'suck'
'subject'
'stun'
'study'
'studi'
'struck_'
'stranger'
'stop'
'ston'
'stern_'
'state'
'stat'
'starts_'
'stair'
'spell_'
'span'
'soup_'
'some'
'soldier_'
'smo'
'smart'
'slept_'
'ske'
'sisters_'
'simply_'
'silver_'
'sil'
'signa'
'shit'
'shirt_'
'shift'
'she'
'shar'
'sexy_'
'sees_'
'season_'
'screwed_'
'scra'
'score'
'scientist'
'sci'
'sb'
'saving_'
'sail'
'safety_'
'safe'
'sacr'
'ruct'
'ros'
'rom'
'rol'
'rock_'
'river_'
'rings_'
'rim'
'ridi'
'rib'
'rgi'
'rg'
'reta'
'ressi'
'reso'
'research_'
'require'
'represent'
'repl'
'relations'
'rein'
'regular_'
'regi'
'refer'
'record'
'reci'
'rc'
'ration_'
'range_'
'rage'
'race'
'rab'
'queen_'
'q'
'pupp'
'pte'
'pt_'
'pros'
'procedure_'
'prior'
'price_'
'pressi'
'press_'
'prepared_'
'prec'
'practice_'
'pping_'
'pot_'
'pop_'
'politics_'
'polit'
'pol'
'pleas'
'plays_'
'played_'
'plate_'
'planned_'
'plain'
'pissed_'
'pir'
'pie'
'pick'
'philosoph'
'ph'
'pet_'
'person'
'perform'
'peace_'
'pattern'
'patr'
'passion'
'particular_'
'ox'
'ouse_'
'ours_'
'ott'
'oti'
'otherwise_'
'ote'
'ot'
'ore'
'option'
'opinion'
'oph'
'operation'
'opens_'
'ong_'
'oli'
'old'
'off'
'nut_'
'ntra'
'nti'
'nse_'
'nos'
'normally_'
'nna'
'nl'
'nist'
'nic'
'net_'
'ners_'
'ndo'
'ndl'
'nding_'
'ndi'
'nded_'
'natur'
'nan'
'nam'
'nal'
'must'
'murderer_'
'mul'
'mpl'
'mou'
'mother'
'modern_'
'mming_'
'mid'
'micro'
'meta'
'mer_'
'medic'
'med'
'matters_'
'marriage_'
'marks_'
'lusi'
'ls'
'loyal'
'lov'
'local_'
'loc'
'lle_'
'lion'
'line'
'lin'
'liar_'
'letters_'
'ler'
'leg'
'ld_'
'lb'
'law'
'lau'
'lately_'
'las'
'lab'
'kl'
'kis'
'kinda_'
'ker'
'justice_'
'jump'
'joy_'
'jin'
'ject'
'jealous_'
'jack'
'ja_'
'iv'
'ists_'
'isti'
'ist_'
'iso'
'invited_'
'inv'
'inte'
'instan'
'inst'
'inn'
'injur'
'init'
'indeed_'
'ince_'
'inati'
'ild'
'ignor'
'ight_'
'ier_'
'ien'
'ident'
'ick'
'ices_'
'hur'
'hung'
'hug'
'ht_'
'hro'
'hos'
'hn'
'highly_'
'hello_'
'harm_'
'guns_'
'gun'
'guest_'
'gues'
'guard'
'grow'
'gri'
'grav'
'grateful_'
'grap'
'grand_'
'grand'
'goo'
'goa'
'gle'
'gie_'
'ght'
'genero'
'garbage_'
'gang_'
'gain'
'ga_'
'further_'
'frig'
'fortunate'
'former_'
'forgive_'
'forces_'
'flowers_'
'fellow_'
'federal_'
'fed_'
'feat'
'fancy_'
'fam'
'falls_'
'falling_'
'fal'
'fake_'
'exte'
'eve'
'ev'
'err'
'ere'
'environment'
'entr'
'ent'
'engine'
'engaged_'
'ending_'
'ember'
'ema'
'eggs_'
'effort'
'eer'
'ecti'
'ect'
'east'
'easily_'
'easier_'
'ear_'
'eag'
'ead_'
'due_'
'drag'
'dr'
'dive'
'disappoint'
'director_'
'dick_'
'dh'
'desperate_'
'ders'
'depend'
'department_'
'dem'
'defe'
'dde'
'darling_'
'danger_'
'dancing_'
'cut'
'custo'
'curse'
'cro'
'crea'
'cre'
'crash_'
'counsel'
'convinced_'
'contr'
'considering_'
'consi'
'confirm'
'complain'
'compet'
'coll'
'clown_'
'climb_'
'clear'
'class'
'citizen'
'cing_'
'cia_'
'ching_'
'chick'
'cheap_'
'chat_'
'charity_'
'channel_'
'change'
'cham'
'cc'
'cases_'
'cas'
'cardi'
'captain_'
'cancel'
'burn'
'bump'
'brow'
'brilliant_'
'bright_'
'break'
'brain'
'boun'
'bother_'
'boom'
'book'
'bob'
'blu'
'bless'
'blame_'
'bird_'
'bin'
'berg_'
'belt_'
'belong_'
'believe'
'begin'
'beg'
'bed'
'becom'
'bble'
'bbi'
'battle_'
'barely_'
'bal'
'bake'
'bail'
'bag'
'bac'
'babe_'
'avoid_'
'aur'
'audi'
'asse'
'assassin'
'ased_'
'artist'
'arriving_'
'army_'
'ario'
'argu'
'appro'
'antic'
'anti'
'answer'
'animal'
'anding_'
'ana'
'ain'
'agents_'
'advan'
'ada'
'acy_'
'actress_'
'acting_'
'accus'
'accompli'
'abo'
'] [_'
'Yup_'
'Yo'
'Wit'
'William'
'Wi'
'West_'
'Way_'
'Wal'
'Wake_'
'Vince'
'VER'
'Tow'
'Too'
'Thro'
'Thomas_'
'TT'
'TO'
'THA'
'Street_'
'Spr'
'Smith'
'Sky'
'Show_'
'Shh_'
'Shan'
'Shall_'
'Sh'
'Seven_'
'Scott'
'Scot'
'Sara'
'Sand'
'Sam'
'Rus'
'Roman'
'Rod'
'Res'
'Rachel_'
'Probably_'
'Play'
'Pl'
'Part'
'Park'
'Out'
'Other'
'Original_'
'ON'
'Nig'
'Ner'
'Neil'
'NS'
'NA'
'Must_'
'Mur'
'Monday_'
'Mig'
'Mid'
'Mexic'
'Meg'
'Mc'
'Major_'
'MO'
'MAN_'
'Lucky_'
'Lou'
'Life_'
'Len'
'Laura_'
'LO'
'Kl'
'Kit'
'Kevin_'
'Kelly_'
'Kate_'
'Kan'
'Julie_'
'Jin'
'Jay_'
'Jackie_'
'Ital'
'Ir'
'Ind'
'Im'
'IN_'
'Hope_'
'Hil'
'Hen'
'Hawaii_'
'Ham'
'Hai'
'HE'
'Guess_'
'Gran'
'Gos'
'God'
'Ger'
'GH'
'Fred'
'Four_'
'Follow_'
'Fig'
'Fel'
'Fee'
'Fan'
'FFFFFF_'
'FF'
'Especially_'
'Elli'
'Eli'
'ER_'
'Drop_'
'Donn'
'Don'
'Die'
'Dee'
'Cy'
'Cut_'
'Comm'
'Chris_'
'China_'
'Char'
'Chand'
'Cath'
'Cassi'
'Bru'
'British_'
'Brian_'
'Bor'
'Blo'
'Bell'
'Beh'
'Base'
'Bal'
'Ay'
'Alex_'
'Ale'
'Alb'
'Air_'
'According_'
'Aar'
': "_'
'800_'
'70_'
'57'
'400_'
'29_'
'27_'
'21_'
'13_'
'07'
'0000_'
'... ..._'
'- . '
')..'
'). '
') ..'
') )'
'( (_'
'', _'
'"... '
'". _'
'" - '
' ] _'
' \'
' ? '
' ... .'
' - !_'
' "'
'  '
'‫ - _'
'يوم'
'يول'
'يوقف'
'يورك'
'يور'
'يهرب'
'يهد'
'ينظ'
'ينز'
'يمه_'
'يملك'
'يما_'
'يلها_'
'يكا_'
'يقتلني_'
'يقتل'
'يقت'
'يفك'
'يفقد'
'يفعلون_'
'يفسر_'
'يغادر_'
'يعي'
'يعلمو'
'يعل'
'يعتني_'
'يعتقد'
'يعتبر'
'يعة_'
'يعان'
'يطلب_'
'يطا'
'يط_'
'يضع_'
'يضرب'
'يشر'
'يشاهد'
'يشا'
'يسير_'
'يسمح_'
'يسك'
'يسعن'
'يسرني_'
'يسرق'
'يستم'
'يستخدم_'
'يزع'
'يريدون'
'يريدني_'
'يرن_'
'يرم'
'يرد'
'يرحل'
'يدى_'
'يدور_'
'يدفعو'
'يختف'
'يحتر'
'يجي'
'يجلس_'
'يجعل'
'يجد'
'يجا'
'يثير_'
'يتل'
'يتحس'
'يتا'
'يتأ'
'يبيع'
'يبدأ_'
'ياله'
'ياس'
'ياز'
'ياد'
'يااله'
'يأتون_'
'ىا'
'ىأ'
'ويم'
'وير_'
'ويد'
'ويب'
'وول'
'وود_'
'ووج'
'وهم'
'وند'
'ونا'
'ومي'
'ومه'
'ومع_'
'ولين_'
'وليا'
'ولو'
'ولنا'
'ولم'
'ولكنهم_'
'ولكننا_'
'ولس'
'ولذ'
'ولد'
'ولاية_'
'وفقا_'
'وفاة_'
'وغير_'
'وعد_'
'وعائلت'
'وضو'
'وضعت'
'وصل'
'وشك'
'وسم'
'وزن'
'ورطة_'
'ودك'
'وحدها_'
'وحتى_'
'وجم'
'وتم'
'وتقو'
'وتف'
'وتعرف'
'وبين'
'وبه'
'وبعض_'
'وبر'
'وبات_'
'وانه'
'والي'
'والو'
'واله'
'والمس'
'والغ'
'والسي'
'والسع'
'والر'
'واط'
'واضح'
'واجه'
'واج'
'واثقا_'
'وإن_'
'وإل'
'وأيضا_'
'وأود_'
'وأنتم_'
'وأج'
'هين'
'هيلي'
'هيـ'
'هوي'
'هوم'
'هولي_'
'هوك'
'هور'
'هود'
'هنـا_'
'همة_'
'هك_'
'هف'
'هــ'
'هـذه_'
'هزة_'
'هده'
'هبط'
'هاية_'
'هاوا'
'هاما'
'هاتفي_'
'هاتف'
'نيه'
'نين'
'نيس_'
'نوق'
'نورما'
'نود'
'نهاي'
'نها'
'نمت_'
'نلت'
'نكت'
'نقي'
'نقاط_'
'نفك'
'نفذ'
'نعرفه'
'نعتقد_'
'نظف'
'نظر_'
'نطل'
'نشأ'
'نزي'
'نزل'
'نري'
'ندي_'
'ندي'
'نخت'
'نحتاج'
'نحت'
'نحب'
'نث'
'نتيجة_'
'نتي_'
'نتنا'
'نتكلم_'
'نتق'
'نترك_'
'نتأ'
'نبات'
'ناول_'
'ناه'
'نانسي_'
'ناجح'
'ناتالي_'
'نائما_'
'نائم_'
'نائب'
'نائ'
'نأخذ_'
'ميني'
'موني_'
'مونت'
'مونا'
'مولا'
'موقف_'
'موسيقى_'
'مود'
'موجود'
'موته_'
'مهووس'
'مهرج'
'منطق'
'منصب'
'منزعج'
'منج'
'مناقش'
'مميز_'
'مليا'
'مله'
'ملفات'
'ملح'
'ملاح'
'ملابسك_'
'مكل'
'مكتو'
'مكانه'
'مكان'
'مقل'
'مقب'
'مقارنة_'
'مقابلت'
'مفقودة_'
'مفقود_'
'مفر'
'مغر'
'معين_'
'معناه'
'معقدة_'
'معقد'
'معسكر'
'معروفا_'
'معروف_'
'معرفته_'
'معرفت'
'معجبة_'
'معجب'
'مظل'
'مطلق'
'مطل'
'مطب'
'مضاعف'
'مضاجع'
'مصر'
'مشو'
'مشغ'
'مشاهد'
'مسلسل'
'مستمر'
'مستقبل'
'مستعدا_'
'مستش'
'مستر_'
'مستاء_'
'مساعد'
'مزدوج'
'مزاج'
'مز_'
'مري'
'مرت_'
'مراهق'
'مراقبة_'
'مذهلة_'
'مذنب'
'مدا'
'مخطئا_'
'مخطئ'
'مختلفا'
'محلي'
'محطة_'
'محط'
'محترم'
'محام'
'محال_'
'محاك'
'مجه'
'مجموع'
'مثيرا'
'متوترة_'
'متعب_'
'متش'
'متخ'
'متحمس'
'متاح'
'متأكدا_'
'متأسف'
'متأخرا_'
'مباشر'
'مايك'
'ماي_'
'ماهي'
'مام_'
'ماكس'
'ماك_'
'ماغي_'
'ماعدا_'
'ماريس'
'مارج'
'ماح'
'ماأ'
'مئن'
'مؤل'
'مؤسسة_'
'مؤخرته'
'مألوف'
'ليون'
'ليو'
'ليه_'
'ليني_'
'ليندا'
'ليلى_'
'ليلتك_'
'ليك'
'ليزلي_'
'ليزا_'
'ليام_'
'لنك'
'لنش'
'لنخرج_'
'لنتح'
'لمن'
'لمقا'
'لمع'
'لمش'
'لمساعدتك_'
'لمر'
'لمجرد_'
'لمة_'
'للمط'
'للغ'
'للعل'
'للشرطة_'
'للشر'
'للداخل_'
'للخارج_'
'للجميع_'
'للان'
'للإع'
'للأسف_'
'لكنى_'
'لكـ'
'لقه'
'لقضاء_'
'لفر'
'لعين'
'لعمل'
'لعبت'
'لسر'
'لرؤيت'
'لذيذ_'
'لذ'
'لحماي'
'لجميع_'
'لجعل'
'لتوق'
'لتقول'
'لتغ'
'لتحقيق_'
'لتأ'
'لبن'
'لايمكنك_'
'لاف_'
'لاف'
'لاعب'
'لاص'
'لاس'
'لازل'
'لاحق'
'لاحظت_'
'لاتر'
'لائ'
'لإعاد'
'لإط'
'لإج'
'لأي'
'لأول_'
'لأنهم_'
'لأق'
'لأعلى_'
'لأرى_'
'لأخ'
'لأجلك_'
'كيلي_'
'كوكب_'
'كنيس'
'كني'
'كمين_'
'كمة_'
'كلهم_'
'كلمت'
'كلامي_'
'كـان'
'كعكة_'
'كع_'
'كشفت_'
'كشف'
'كريستين_'
'كرات'
'كثير'
'كتروني'
'كايت'
'كام_'
'كالع'
'كاف'
'كاسي_'
'كارين_'
'كارولين_'
'كارم'
'كارل_'
'كاث'
'كابو'
'كأنه'
'كأنني_'
'قيق_'
'قير'
'قية_'
'قياد'
'قمت'
'قلقا_'
'قلتي_'
'قلب'
'قـا'
'قصير_'
'قش'
'قري'
'قراءة_'
'قدي'
'قتال'
'قامو'
'قاتل'
'فيهم_'
'فيليب_'
'فيكتور_'
'فيرو'
'فيرج'
'فيدي'
'فيت_'
'فيب'
'فوك'
'فورت_'
'فور_'
'فوا'
'فها_'
'فمن_'
'فمك_'
'فما_'
'فلنذهب_'
'فلما'
'فلدي_'
'فكري_'
'فقة_'
'فـا'
'فعي'
'فعه'
'فعلي'
'فعلو'
'فضلكم_'
'فسة_'
'فرنسي'
'فرصت'
'فتي'
'فاني'
'فاعل'
'فاظ_'
'فاج'
'فاتن'
'فئ_'
'ـوا'
'ـن'
'ـل'
'ــي'
'ــه'
'ــم_'
'ــر_'
'ــت'
'ـع_'
'ـع'
'ـط'
'ـس'
'ـان_'
'ـات'
'غيو'
'غيل_'
'غيل'
'غون'
'غنية_'
'غنا'
'غلا'
'غز_'
'غرفتك_'
'غت_'
'غادر_'
'غاد_'
'غاب'
'عينيه'
'عينا'
'عيب'
'عودت'
'عنيف'
'عنيد'
'عنوان_'
'عمه'
'عمليات_'
'عمد'
'علية_'
'علـى_'
'علام_'
'علام'
'علاقت'
'علاق'
'علا'
'عقب'
'عف_'
'عــ'
'عضو_'
'عشرون_'
'عرفت'
'عرا'
'عدوا'
'عجب_'
'عتي'
'عبي'
'عبر'
'عبا'
'عالي_'
'عال_'
'عاطفي'
'عاز'
'عار_'
'عادت'
'عائلته_'
'ظهري_'
'ظن_'
'ظاهر'
'ظ'
'طيلة_'
'طيع'
'طية_'
'طيبة_'
'طيبا_'
'طور_'
'طه_'
'طلاق_'
'طفلت'
'طع'
'طريقنا_'
'طد'
'طحب'
'طح'
'طبا'
'طان'
'طالب'
'طال_'
'طاق'
'طاف_'
'طاعت'
'طات'
'طئ'
'ضيق'
'ضه'
'ضمن_'
'ضعيف'
'ضده'
'ضخم_'
'ضخم'
'ضحك_'
'ضب_'
'ضار_'
'ضائ'
'صيني'
'صيح'
'صوفي'
'صورت'
'صواب'
'صه_'
'صنعت_'
'صله'
'صلب'
'صك_'
'صفع'
'صغ'
'صريح'
'صرخ'
'صديقا_'
'صدمة_'
'صان'
'صاص'
'صاحبي_'
'شيت'
'شيئ'
'شهي'
'شهرين_'
'شمال'
'شكل'
'شقي'
'شغل_'
'شعا'
'شرة_'
'شراب_'
'شديد_'
'شخصين_'
'شخصي_'
'شح'
'شجر'
'شاهدت_'
'شام'
'شاف'
'شارك'
'شأنه'
'شأن_'
'سيه'
'سين_'
'سيموت'
'سيلف'
'سيعود_'
'سيعل'
'سيعط'
'سيدات'
'سيتو'
'سيارتك_'
'سيارت'
'سيارات_'
'سيار'
'سيا'
'سيأتي_'
'سوم'
'سنه'
'سنن'
'سنرحل_'
'سند'
'سنخ'
'سمعتها_'
'سلة_'
'سكر_'
'سقط_'
'سفا'
'سـا'
'سعيد'
'سس'
'سرير'
'سري'
'سرور'
'سرق_'
'سرا'
'سدا'
'سد_'
'سحب_'
'سحب'
'سجلات_'
'ستين'
'ستقو'
'ستعي'
'ستطيع_'
'ستخرج'
'ستحب'
'ستأخذ'
'سبع'
'ساو'
'سالي'
'ساعدو'
'ساع'
'سارا'
'ساذج'
'سات_'
'سائق_'
'ساء_'
'سئ_'
'سؤال'
'سأف'
'سأعط'
'سأض'
'سأصل_'
'سأشت'
'سأرحل_'
'سأحت'
'سأتح'
'زيف'
'زيد_'
'زيارت'
'زيا'
'زى_'
'زون'
'زك_'
'زعي'
'زعت'
'زرا'
'ريه'
'روني_'
'رول_'
'روسي'
'روس_'
'روس'
'روت'
'رهن_'
'رمز_'
'رم_'
'ركي'
'ركض'
'رقص'
'رقبت'
'رقا'
'رق'
'رفيقي_'
'رغبة_'
'رعة_'
'رع'
'ردن'
'ردا'
'رخي'
'رجالك_'
'رتي'
'ربع_'
'ربط'
'راين'
'راندي_'
'راند'
'راقص'
'راقب'
'راف'
'رئيسك_'
'رؤيتها_'
'رأيتها_'
'رأت'
'رآ'
'ذين'
'ذهبو'
'ذهبت'
'ذل_'
'ذف_'
'ذار'
'ديني_'
'ديف_'
'ديد'
'ديان_'
'دوك_'
'دود'
'دهم_'
'دمر'
'دكت'
'دقا'
'دفن'
'دعون'
'دعوت'
'دعه'
'درة_'
'دراجة_'
'دخول_'
'دخلت_'
'داني'
'دار_'
'دء_'
'خيص'
'خمسون_'
'خلي_'
'خلفي_'
'خـ'
'خطير'
'خطب'
'خطئ'
'خطأي_'
'خطأك_'
'خش'
'خسارة_'
'خري'
'خروج'
'خذي'
'خذني_'
'خدام_'
'خال_'
'خال'
'خاطئة_'
'خاط'
'خارق'
'خارج'
'حيوي'
'حيل'
'حياتهم_'
'حيا'
'حون_'
'حمل_'
'حلمت_'
'حلم_'
'حقير_'
'حقيبة_'
'حقو'
'حفر'
'حضور_'
'حسنـا_'
'حرف'
'حراس'
'حرار'
'حذرت'
'حذرا_'
'حذر'
'حتفال_'
'حتاج'
'حبي_'
'حبا'
'حاول'
'حام_'
'حالت'
'حادث_'
'حاد'
'حات'
'حا_'
'جيفر'
'جوه'
'جوني'
'جوزي'
'جود'
'جنوب_'
'جند'
'جنب'
'جميعها_'
'جمهور'
'جمال_'
'جما'
'جلسة_'
'جلد'
'جلالت'
'جلا'
'جعلني_'
'جرعة_'
'جرت'
'جديدا_'
'جدية_'
'جاين_'
'جاني'
'جانبا_'
'جامعة_'
'جامع'
'جاك'
'ثنا'
'ثما_'
'ثقيل'
'ثقة_'
'ثف'
'ثرة_'
'ثابت'
'تيني_'
'تينا_'
'تين'
'تيم_'
'تيس_'
'تيب_'
'تيات_'
'توك'
'توقي'
'توري'
'تودين_'
'تهد'
'تهاني_'
'تنفع'
'تنظي'
'تنظري'
'تنسى_'
'تنج'
'تنته'
'تنام_'
'تمون'
'تمك'
'تمشي_'
'تمان'
'تمام_'
'تماع'
'تماسك'
'تلمس'
'تلقينا_'
'تكب'
'تقولي_'
'تقوله_'
'تقع_'
'تقط'
'تقصد'
'تقدير'
'تقدم'
'تقتلن'
'تقتر'
'تقاط'
'تفكي'
'تفك'
'تفر'
'تـر'
'تغطي'
'تعويذ'
'تعنين_'
'تعم'
'تعليمات'
'تعلمي_'
'تعلق'
'تعقب'
'تعطي_'
'تعرفني_'
'تعر'
'تعبث'
'تعبت_'
'تعال'
'تظا'
'تطيع_'
'تضحك'
'تصي'
'تصوير'
'تصو'
'تصن'
'تصل'
'تصريح_'
'تصرفات'
'تشين'
'تشك'
'تشرب'
'تشارلز_'
'تشاب'
'تسيطر_'
'تستمر_'
'تستق'
'تستخدم_'
'تسب'
'تساعدن'
'تساعدك_'
'تسأل_'
'تزوج'
'تزل'
'تركته_'
'تركته'
'تركتني_'
'ترف'
'ترجمة_'
'ترتد'
'تدمير_'
'تدعي_'
'تدعى_'
'تدعو'
'تدرك_'
'تخيل_'
'تخلص'
'تخف'
'تخطي'
'تخرجي_'
'تخرج'
'تخب'
'تخاف'
'تحكم_'
'تحقيق'
'تحظ'
'تحض'
'تحر'
'تحذير'
'تحتوي_'
'تحتاج'
'تجلس'
'تجعلي'
'تجربة_'
'تجاه_'
'تثبت_'
'تتك'
'تتغير_'
'تتصل_'
'تتركني_'
'تتذكرين_'
'تتد'
'تتحرك'
'تتبع_'
'تتبع'
'تتأخر'
'تبل'
'تبك'
'تبقي'
'تبتسم'
'تالي'
'تاك'
'تافه'
'تات'
'تاة_'
'تأمين_'
'ةب'
'بيل'
'بيدي_'
'بيد_'
'بيج'
'بيانات_'
'بوط_'
'بوضوح_'
'بوص'
'بوسعك_'
'بوسطن_'
'بوالد'
'بواب'
'بنيت_'
'بنك'
'بنفسه_'
'بنج'
'بنت_'
'بمل'
'بمقد'
'بمف'
'بمشا'
'بمر'
'بمد'
'بقيت_'
'بقة_'
'بفعل'
'بفر'
'بــ'
'بـا'
'بغر'
'بعود'
'بعمل'
'بعضهما_'
'بطر'
'بض_'
'بصن'
'بصح'
'بسل'
'بسا'
'برني_'
'برك'
'برق'
'برد'
'براند'
'براطور'
'برؤيتك_'
'بدل'
'بداخله'
'بخد'
'بحياته'
'بحد'
'بحث_'
'بجوار'
'بتي'
'بتأ'
'باول'
'بام_'
'بالوا'
'باله'
'بالنسبه_'
'بالمق'
'بالمد'
'بالظ'
'بالضر'
'بالذنب_'
'بالذ'
'بالدم'
'بالحديث_'
'بالجلوس_'
'بالتف'
'بالتحد'
'بالان'
'بالاس'
'بالإن'
'بالإمكان_'
'باع_'
'باس'
'باريس_'
'باح'
'باتريك_'
'بإمكان'
'بأى_'
'بأمكان'
'بأكملها_'
'بآ'
'ايم'
'اير'
'اولا_'
'اوق'
'اهم'
'اهر'
'اهت'
'انهي'
'انفج'
'انع'
'انطل'
'انص'
'اندر'
'انتهت_'
'انتما_'
'انتظر'
'اليوم'
'الوك'
'الوص'
'الورد'
'الورا'
'الور'
'الوداع_'
'الهي'
'النهار_'
'النها'
'النظرة_'
'النصي'
'الموقع_'
'الموسيقية_'
'الموج'
'الموتى_'
'المواقع_'
'المنص'
'المنزلي'
'المنتصف_'
'الممر'
'المكالم'
'المفاتيح_'
'المعن'
'المعلم'
'المعروف'
'المعتاد'
'المصرف'
'المشي_'
'المشاعر_'
'المستع'
'المساكين_'
'المسؤولية_'
'المسألة_'
'المزا'
'المرض_'
'المرحاض_'
'المرح_'
'المدني'
'المدفع'
'المدعي_'
'المدرس'
'المدر'
'المخط'
'المحرك_'
'المحاكمة_'
'المجرم'
'المجتمع_'
'المجال_'
'المته'
'المتق'
'المتج'
'الماد'
'المؤكد_'
'المؤخر'
'الليله_'
'اللوح'
'اللغ'
'الكوم'
'الكوكب_'
'الكن'
'الكذب_'
'الكثير'
'الكب'
'الكاملة_'
'الكابتن_'
'القومي_'
'القواعد_'
'القنبل'
'القلعة_'
'القطن'
'القطة_'
'القطا'
'القدرة_'
'القبيل_'
'الفيروس'
'الفيدرالي_'
'الفول'
'الفضائي'
'الفضاء_'
'الفرنسي'
'الفد'
'الفائز'
'الـ1'
'العم_'
'العلوي_'
'العلام'
'العلاقات_'
'العظيم_'
'العصاب'
'العرا'
'العذ'
'العار'
'الطفل'
'الطبق'
'الطبا'
'الطاق'
'الضوء_'
'الضغط_'
'الضرر_'
'الضرب'
'الضر'
'الضخم_'
'الضحك'
'الصنا'
'الصفر'
'الصراخ_'
'الصدا'
'الشوك'
'الشمالي_'
'الشمال'
'الشكو'
'الشق'
'الشط'
'الشرعي_'
'الشرطي_'
'الشرا'
'الشخصي'
'الشباب_'
'السيد'
'السوء_'
'السنوات_'
'السلطة_'
'السلام_'
'السحري'
'السحر_'
'السح'
'السباق_'
'السبا'
'السائق_'
'الزاوية_'
'الزا'
'الريا'
'الرصيف_'
'الرش'
'الرب'
'الرابعة_'
'الرائعة_'
'الرأي_'
'الرأس_'
'الذهبي'
'الذهب_'
'الذاكر'
'الدولي'
'الدول'
'الدليل_'
'الدرا'
'الدجاج'
'الد_'
'الخوف_'
'الخلا'
'الخضراء_'
'الخص'
'الخبر_'
'الخاطئ'
'الخاتم_'
'الحماية_'
'الحك'
'الحفلات_'
'الحفل_'
'الحسا'
'الحرية_'
'الحجم_'
'الحالي_'
'الحافل'
'الحاضر_'
'الحارس_'
'الجو_'
'الجنا'
'الجلد_'
'الجسم_'
'الجراحة_'
'الجرا'
'الجث'
'الجبن'
'الجبا'
'الثع'
'الثامنة_'
'التي'
'التهم'
'الته'
'التلا'
'التكن'
'التكل'
'التقيت_'
'التطو'
'الترا'
'التذ'
'التخي'
'التحقيقات_'
'التالية_'
'البيضا'
'البناء_'
'البشري'
'البرا'
'البحار'
'البالغ'
'البارد'
'الاه'
'الانس'
'الاق'
'الاطلاق_'
'الاص'
'الاسبوع_'
'الاختبا'
'الاحمق_'
'الات_'
'الإه'
'الإنج'
'الإعلام_'
'الإدارة_'
'الأوامر_'
'الأنوا'
'الأمير'
'الأموال_'
'الأمري'
'الألمان'
'الأطباء_'
'الأرج'
'الآم'
'اكي_'
'اكره_'
'اكر_'
'اكب'
'اكا'
'اقوم_'
'اقو'
'اقر'
'اقة_'
'افر'
'افتح'
'اغل'
'اعه'
'اعطان'
'اعدن'
'اعتني_'
'اعتقد'
'اعترف'
'اعتب'
'اظه'
'اطفال'
'اطر'
'اصط'
'اصدقا'
'اشكرك_'
'اشتقت_'
'اسو'
'اسن'
'اسمحوا_'
'اسف'
'اسرع_'
'استن'
'استعم'
'استعد'
'استطع'
'استش'
'استخدم_'
'استخ'
'ارين'
'اريدك_'
'ارو'
'اره'
'ارك_'
'ارح'
'ارج'
'ارتك'
'ارت_'
'ادي_'
'اده'
'ادل_'
'اخف'
'اختطف'
'اخبرن'
'اخبرته'
'احضر'
'اجلسي_'
'اث_'
'اتعلم_'
'اتريد'
'ابنك_'
'ابقي'
'ابعد'
'ابدأ_'
'ابحث_'
'ائي'
'ائق_'
'اءك_'
'اءة_'
'ئين_'
'ئها_'
'ئق_'
'ئز'
'ئج'
'ئتمان'
'ئات_'
'إيمي_'
'إيجاد'
'إيا'
'إنقاذ_'
'إنظر'
'إنط'
'إنساني'
'إنتهي'
'إنتظ'
'إمت'
'إك'
'إشا'
'إسمي_'
'إستمع'
'إستد'
'إسب'
'إس_'
'إذ'
'إجراء_'
'إجازة_'
'إثن'
'إث'
'أيدي'
'أيا'
'أوو'
'أوليفر_'
'أوقات_'
'أوضح_'
'أوب'
'أهل'
'أها'
'أنهيت_'
'أنهم'
'أنزل'
'أمين'
'أمير'
'أمور'
'أمه'
'أمل'
'أمره'
'أمرت'
'أمثال'
'أماه_'
'أماكن'
'أليست_'
'ألماني'
'ألقي_'
'ألغ'
'أكمل'
'أكر'
'أكتشف'
'أكتب_'
'أقنع'
'أقط'
'أقا'
'أفلام_'
'أفق'
'أفعلها_'
'أفع'
'أفريقيا_'
'أغل'
'أغا'
'أعين'
'أعوام_'
'أعلـم_'
'أعطيته_'
'أعطيت'
'أعطو'
'أعطا'
'أعرض_'
'أعجب'
'أعب'
'أظهر_'
'أظنه_'
'أظنني_'
'أظنك_'
'أطلق'
'أضع_'
'أصيب_'
'أصوات'
'أصمت'
'أصح'
'أصبح'
'أصاب'
'أسود_'
'أسمه_'
'أسما'
'أسلحة_'
'أسلح'
'أسرعي_'
'أسرع'
'أسرار'
'أستيقظ'
'أستمع'
'أستم'
'أستخدم'
'أريد'
'أرحل_'
'أرجوكم_'
'أرجو_'
'أرجع_'
'أرادن'
'أراد'
'أذكى_'
'أدو'
'أدنى_'
'أدل'
'أدفع_'
'أدف'
'أخوا'
'أخمن_'
'أخـ'
'أخبرته_'
'أحضره'
'أحذر'
'أحدكم_'
'أحتاجك_'
'أحبه_'
'أجيب'
'أجه'
'أجمل_'
'أجـل_'
'أجعل_'
'أجده'
'أجا'
'أتوقف_'
'أتعرف'
'أتتذكر'
'أتب'
'أبل'
'أبق'
'أبح'
'أبت'
'آند'
'آسفه_'
'آرت'
'آر_'
'آذ'
'آث'
'آت_'
'،‏'
'،،'
'~'
'}._'
'}"_'
'zar'
'yton_'
'yell'
'xt'
'written_'
'wound'
'worthy_'
'woo'
'wis'
'wil'
'whis'
'wha'
'wave_'
'ware_'
'wan'
'vul'
'vit'
'vice'
'vic'
'ves'
'versi'
'vehicle_'
'vari'
'vani'
'vampire_'
'valuable_'
'vacation_'
'ura'
'uns'
'unli'
'unfo'
'und'
'un_'
'uk'
'uis'
'ughter'
'ught_'
'ud_'
'tw'
'tut'
'tub'
'ts'
'troops_'
'trigger_'
'trick'
'travel_'
'transp'
'transf'
'trace_'
'tos'
'torn'
'tone_'
'tom'
'title_'
'tip'
'tional'
'tig'
'tical'
'terrorist'
'term'
'teri'
'tent'
'tende'
'teeth_'
'tears_'
'teach'
'tam'
'tall'
'tak'
'symbol'
'swa'
'sw'
'suspects_'
'sus'
'sum'
'suit'
'suggesti'
'students_'
'stronge'
'strike_'
'stress'
'stor'
'stl'
'stica'
'stepp'
'stea'
'stati'
'stage'
'square'
'squa'
'spring'
'sport'
'spin'
'spic'
'speed_'
'speak'
'spare_'
'sp'
'sometime_'
'soft_'
'smart_'
'slide'
'slee'
'sity_'
'site_'
'sip'
'sink'
'silly_'
'sight'
'showing_'
'shower_'
'showed_'
'shooting_'
'shin'
'settle_'
'session_'
'served_'
'sens'
'senior'
'sei'
'see'
'sed'
'seat'
'search_'
'seal'
'scream'
'science_'
'sche'
'scar'
'sandwich_'
'sal'
'rude_'
'rta'
'rse'
'rough_'
'rou'
'rot_'
'rot'
'roll'
'role_'
'rock'
'road'
'rn_'
'risk'
'rie_'
'rian'
'ria'
'ri_'
'review_'
'reveal'
'reve'
'result'
'restaurant_'
'respons'
'residen'
'rene'
'remove'
'remo'
'rela'
'regard'
'recogni'
'receive'
'reading_'
'read'
'reached_'
'rdi'
'rch'
'ray_'
'rare'
'quit_'
'ques_'
'quenc'
'qual'
'pus'
'pursu'
'purse_'
'pure_'
'pulling_'
'pub'
'provide'
'prove'
'promot'
'promis'
'profi'
'prof'
'product_'
'produce_'
'produc'
'print'
'practic'
'pped_'
'ppe'
'powers_'
'post_'
'possess'
'poss'
'political_'
'poli'
'poison'
'pocket'
'player_'
'picking_'
'photo_'
'phones_'
'phon'
'pes'
'pers_'
'percent_'
'paying_'
'patients_'
'path'
'passe'
'papers_'
'panic'
'pal_'
'painting_'
'pad'
'ously_'
'oth'
'ost'
'ose_'
'orm_'
'organize'
'organ'
'orat'
'opt'
'ops'
'oppos'
'opportunity_'
'opened_'
'online_'
'ome'
'oll'
'ok'
'ogra'
'offe'
'oes_'
'occu'
'obvious_'
'obsess'
'obs'
'nurse'
'ntin'
'ntie'
'note_'
'nni'
'nights_'
'night'
'nia_'
'ngs_'
'nf'
'nett'
'nes_'
'nes'
'nel_'
'nei'
'necessary_'
'nde'
'nda'
'nati'
'naked_'
'mut'
'move'
'mous'
'moro'
'moon_'
'mond_'
'mom'
'mol'
'mob'
'mma'
'missi'
'mir'
'mind'
'milk_'
'meter'
'met'
'messe'
'mer'
'members'
'medicine_'
'meaning'
'meal_'
'mbo'
'mart'
'mant'
'maj'
'maga'
'lude'
'lou'
'los'
'locat'
'lla_'
'lk'
'literally_'
'link'
'ling'
'lik'
'libera'
'lett'
'lesson_'
'legs_'
'legit'
'learned_'
'leaders_'
'lc'
'lay_'
'lawyers_'
'launch'
'laughin'
'large'
'lap'
'king'
'kind'
'kidnapping_'
'ket_'
'kel'
'kar'
'judg'
'journey_'
'jobs_'
'jan'
'ium_'
'iste'
'isi'
'iron'
'irm'
'ire'
'ip_'
'ional_'
'interna'
'interested_'
'ini'
'inform'
'incredible_'
'inci'
'inch_'
'ina'
'immo'
'immediately_'
'imagin'
'ily_'
'ils_'
'illegal'
'ike'
'ign'
'igh'
'identity_'
'ide'
'ida'
'id'
'ics_'
'icide_'
'ica_'
'ibilit'
'hunt'
'humor'
'hr'
'hors'
'horribl'
'hook_'
'holiday'
'hl'
'highe'
'hidden_'
'hh_'
'here'
'helps_'
'help'
'heavy_'
'hau'
'hates_'
'hated_'
'hart'
'hardly_'
'happiness_'
'hap'
'ham'
'gur'
'gs'
'gru'
'grou'
'grie'
'grid_'
'gras'
'grandm'
'grad'
'gna'
'global_'
'ggs_'
'ggin'
'ges_'
'genius_'
'genera'
'gee'
'gate_'
'gat'
'gas'
'garden_'
'gal'
'fru'
'freak_'
'foun'
'fortune_'
'forge'
'force'
'fool'
'folks_'
'fol'
'focused_'
'fnAr'
'fish'
'finger_'
'fine'
'fill_'
'fil'
'figured_'
'fight'
'fiancé'
'ffer'
'fel'
'favorite_'
'faste'
'fasci'
'fart'
'farm'
'fantas'
'families_'
'failure'
'factor'
'facility_'
'explain'
'expert'
'expensive_'
'expecting_'
'exit'
'exciting_'
'excited_'
'exchange_'
'exam'
'ew_'
'eve_'
'eva'
'eur'
'ety_'
'eth_'
'este'
'essa'
'esc'
'ert'
'erson_'
'ers'
'ern_'
'erg'
'erate'
'eras'
'equip'
'eo_'
'ency_'
'ena_'
'ement'
'emb'
'elle'
'elf_'
'eland_'
'ek'
'eate'
'earlier_'
'dw'
'dul'
'dry'
'drop'
'downstairs_'
'dol'
'diss'
'dish'
'disgusting_'
'disappeared_'
'disappear_'
'dip'
'diet_'
'dic'
'devi'
'detai'
'det'
'dessert_'
'desert_'
'deser'
'describe_'
'defi'
'defense_'
'ddle_'
'dd_'
'dd'
'dating_'
'data_'
'dat'
'dark'
'cus'
'cuff'
'ctu'
'cti'
'cted_'
'cran'
'counting_'
'cost'
'contract_'
'contra'
'contin'
'construction_'
'conse'
'consci'
'cons'
'congr'
'conflict'
'condo'
'concern_'
'conc'
'command_'
'collecti'
'clo'
'clin'
'click'
'cles_'
'cleaning_'
'ckles_'
'cis'
'chy'
'chr'
'choices_'
'chicken_'
'cheese_'
'chee'
'check'
'cheat_'
'chea'
'chat'
'chasing_'
'character_'
'champagne_'
'challenge'
'chain'
'cere'
'cep'
'centur'
'caus'
'capit'
'candy_'
'cand'
'by'
'button_'
'but'
'bug'
'bud'
'brings_'
'brief'
'breakfast_'
'bran'
'box'
'bow'
'bound_'
'borrow_'
'border_'
'boa'
'blown_'
'blood'
'blis'
'blin'
'bleeding_'
'bleed_'
'bled_'
'birth_'
'bill_'
'bes'
'bert'
'belong'
'belo'
'believes_'
'behavior_'
'became_'
'beard_'
'base_'
'bark'
'band_'
'ball'
'backup_'
'backs'
'babies_'
'az'
'authority_'
'author'
'aut'
'attract'
'attack'
'ating_'
'ately_'
'assure'
'assistant_'
'assistance_'
'assignment_'
'asi'
'ash'
'arti'
'arrive_'
'arrest'
'arrange'
'arently_'
'ards'
'apolog'
'ap_'
'anxi'
'answers_'
'ann'
'anie'
'ang'
'ands_'
'among_'
'ald_'
'airport_'
'ah'
'aga'
'adventure_'
'ade'
'acte'
'achi'
'acc'
'ac_'
'ability_'
'abd'
'`_'
'Zi'
'Yea'
'Yay_'
'YE'
'Wood'
'Wonder'
'Wil'
'Whose_'
'Whit'
'Wh'
'Wei'
'Wan'
'Wai'
'Vol'
'VE_'
'United_'
'Uni'
'Ugh_'
'UH_'
'Tur'
'Tro'
'Tre'
'Trans'
'Ton'
'Tim'
'Til'
'Thor'
'Their_'
'Ter'
'Talk_'
'Susan_'
'Suc'
'Sub'
'Sti'
'Steph'
'Spo'
'Spi'
'Speak_'
'South_'
'Slo'
'Skin'
'Simp'
'Simon_'
'Sig'
'Shel'
'Seriously_'
'Sergeant_'
'Senator_'
'Seems_'
'Secret'
'STA'
'Rosa'
'Roger_'
'Roc'
'Roa'
'Rick_'
'Rich'
'Ret'
'Rad'
'Quit'
'Pra'
'Pla'
'Pier'
'Phoe'
'Pet'
'Penny_'
'Pan'
'Pac'
'PA'
'Ow'
'Off'
'OS'
'OP'
'ON_'
'OK'
'Nov'
'Not'
'Nope_'
'Nic'
'Neither_'
'Need_'
'Name'
'Nah_'
'NK'
'My'
'Mis'
'Mira'
'Met'
'Meli'
'Mel'
'Mean'
'Max'
'Marty_'
'Margaret_'
'Many_'
'Main'
'Luci'
'Looking_'
'Light'
'Lib'
'Liam_'
'Laugh'
'LY'
'Kra'
'Ko'
'Kind_'
'Kim_'
'Kids_'
'Kee'
'Jul'
'Jose'
'Jon'
'Joey_'
'Jean'
'Jam'
'Jac'
'Ira'
'Intern'
'Inte'
'Indian_'
'Inc'
'IS'
'ID_'
'Hum'
'Hot'
'Hon'
'Hit'
'Harry_'
'Hanna'
'Had_'
'Gwen_'
'Guil'
'Grandma_'
'Gold'
'Gil'
'Gibbs_'
'Gh'
'Georg'
'Gene'
'GR'
'Fuckin'
'Fri'
'Fra'
'Florida_'
'Fire_'
'Far'
'Fai'
'FU'
'FE'
'Exp'
'Earl'
'ER'
'Dy'
'Dio'
'Dev'
'Der'
'Department_'
'Del'
'Dece'
'Day'
'Davis_'
'Dave_'
'Date_'
'Dark'
'Dale_'
'DC'
'Cut'
'Cur'
'Couldn_'
'Corp'
'Cool_'
'Conn'
'Conf'
'Comp'
'Close'
'Clear_'
'Clark_'
'Christian'
'Cheers_'
'Charles_'
'Chap'
'Cel'
'Cart'
'Cap'
'Calm_'
'Call'
'C0'
'Buc'
'Bruce_'
'Bring_'
'Brea'
'Bravo_'
'Bos'
'Boom'
'Bobby_'
'Bloo'
'Black'
'Bee'
'Beautiful_'
'Bat'
'Barne'
'BR'
'Ash'
'Answer_'
'Angel_'
'Ang'
'Alex'
'Ain_'
'Again_'
'Africa_'
'Admi'
'Adam_'
'Abb'
'AT_'
'AT'
'95_'
'75_'
'72'
'65_'
'64'
'600_'
'53'
'45'
'32_'
'30'
'215_'
'1cHFFFF'
'09_'
'- ..._'
'- ..'
'),'
') "_'
'",_'
'"(_'
' ]'
' ['
' ='
' .....'
' ... ...'
' ..'
' . ._'
' - . _'
' ,'
' ' _'
'♫_'
'♪♪♪'
'♪ ♪ '
'‫"'
'‏‏'
'‏'
'يوميا_'
'يوك'
'يوح'
'يهود'
'يهمك_'
'ينيا_'
'ينها'
'ينش'
'ينب'
'ينات_'
'يمين_'
'يميز'
'يموتو'
'يمكنن'
'يمض'
'يمثل_'
'يمتلك'
'يلي'
'يلات'
'يكون'
'يكتب_'
'يكا'
'يقوله'
'يقودن'
'يقط'
'يقرأ_'
'يقد'
'يقتلو'
'يقتر'
'يقب'
'يفلح'
'يفكرو'
'يفعلو'
'يفعلها_'
'يفر'
'يفة_'
'يغير_'
'يعيد'
'يعو'
'يعق'
'يعط'
'يعر'
'يعتر'
'يعب'
'يعامل'
'يعال'
'يصنع'
'يصل'
'يصف'
'يصع'
'يصر'
'يصب'
'يشي'
'يشعرو'
'يشعر'
'يسم'
'يستي'
'يستمع_'
'يستطيع'
'يستر'
'يستخدمو'
'يزر_'
'يري_'
'يره'
'يرج'
'يذكر_'
'يذكر'
'يدعي_'
'يدعو_'
'يخد'
'يخبرني_'
'يحمل'
'يحلو_'
'يحض'
'يحاولون_'
'يجيء_'
'يجو'
'يتوق'
'يتهم'
'يتنا_'
'يتك_'
'يتعامل_'
'يتض'
'يتصرف'
'يتص'
'يتد'
'يتخل'
'يتحد'
'يتبع'
'يبلغ_'
'يبق'
'يبد'
'يبا_'
'ياي'
'يانا_'
'ياك_'
'ياط'
'يائ'
'ياأ'
'يئ_'
'يؤلم'
'ويليام'
'ويلس'
'ويقول'
'ويس_'
'ويز'
'ويريد'
'وود'
'ووالد'
'وهنا_'
'ونى_'
'ونق'
'ونر'
'ونة_'
'ونب'
'ومي_'
'ومد'
'ومات_'
'ومات'
'ولون'
'ولن'
'ولماذا_'
'ولف'
'ولـ'
'وكس'
'وكأنني_'
'وقي'
'وقمت'
'وقفت'
'وقطع'
'وقبل_'
'وقات_'
'وعود'
'وعندها_'
'وعن'
'وعل'
'وظيفت'
'وطن'
'وطفل'
'وضعو'
'وضع'
'وضح'
'وصلت'
'وصديق'
'وشي'
'وشر'
'وشا'
'وسك'
'وسر'
'وسائل_'
'وزار'
'ورم'
'ورقة_'
'ورق_'
'ورائ'
'وذلك_'
'ودن'
'وحص'
'وحش'
'وجو'
'وجدوا'
'وجدناه'
'وجا'
'وته'
'وتم_'
'وتل'
'وترك'
'وتد'
'وتب'
'وبو'
'وبا_'
'واي_'
'والمو'
'والشرط'
'والذى_'
'والجم'
'والان_'
'والاس'
'والأن_'
'واقع_'
'وافقت_'
'واضحة_'
'واض'
'وارد'
'واخت'
'وابن'
'واب_'
'وإنما_'
'وإب'
'وأنه_'
'وأنك_'
'هين_'
'هيس'
'هيت'
'هيئة_'
'هوية_'
'هون'
'هولي'
'هور_'
'همه'
'هما'
'هــــ'
'هــذا_'
'هروب'
'هربت_'
'هرا'
'هذي'
'هدفنا_'
'هبة_'
'هارو'
'هارفي_'
'هاربر_'
'هاج'
'هاب_'
'نينا_'
'نيكولا'
'نيس'
'نيد_'
'نوني'
'نون'
'نولا'
'نوبة_'
'نوب'
'نهم'
'ننف'
'نموت_'
'نمو'
'نمط'
'نمر'
'نقض'
'نقدر_'
'نقت'
'نفق'
'نفسي'
'نعـم_'
'نظرا'
'نصبح_'
'نشر'
'نشاط'
'نسم'
'نسر'
'نسبة'
'نزع'
'ندفع'
'ندخ'
'ندات_'
'ندا'
'نخسر'
'نخبك'
'نخب_'
'نحظ'
'نحبه'
'نجده_'
'نجا_'
'نجا'
'نتم_'
'نتح'
'نتج'
'نتب'
'نبيذ_'
'نبقى_'
'ناهم_'
'نالك_'
'ناعم'
'ناع_'
'نار_'
'نار'
'نادر'
'نات'
'ميكي_'
'ميغا'
'ميشيل_'
'ميري'
'ميرل'
'ميد_'
'ميامي_'
'موني'
'مولي'
'موقفك_'
'موفقا_'
'موظفي'
'موط'
'موسيقي'
'موس_'
'مهمل'
'مهل'
'مهد'
'مهار'
'مني'
'منق'
'منظمة_'
'منص'
'منتج_'
'ممم_'
'ممرض'
'ممتلئ'
'ممتع'
'ممتازة_'
'مما'
'ملف_'
'ملاك_'
'ملاحظات'
'ملائم'
'مكو'
'مكن'
'مكسيك'
'مكس'
'مكرو'
'مكاني_'
'مكالم'
'مكافحة_'
'مقرف'
'مقدمة_'
'مقدار'
'مقتن'
'مقتل'
'مقاعد'
'مقاطعة_'
'مقاطع'
'مق_'
'مفك'
'مــا'
'مغل'
'مغا'
'معطف'
'معدل'
'معجزة_'
'معان'
'معالجة_'
'معاق'
'مظهر'
'مضطرب'
'مضا'
'مض_'
'مصي'
'مصور'
'مصن'
'مصرف'
'مصدر_'
'مشهور'
'مشغولا'
'مستعدون_'
'مسافة_'
'مساعدته'
'مساعد_'
'مساح'
'مرغوب'
'مرعب'
'مرضا'
'مرش'
'مرحب'
'مرح_'
'مرتبط'
'مرتاح'
'مرافق'
'مدرست'
'مخف'
'مخز'
'مخر'
'مختب'
'مخت'
'مخال'
'محو'
'محف'
'محظوظا_'
'محظوظ'
'محدد'
'محد'
'مجنون'
'مجل'
'مجرم'
'مجد'
'مثلا_'
'مثال_'
'متوقع_'
'متوقع'
'متورط_'
'متن'
'متفا'
'متطو'
'متزوج_'
'متحمس_'
'متجر_'
'متاك'
'مبيعات_'
'مبه'
'مبكر'
'مبر'
'مباد'
'مايف'
'ماو'
'ماهر'
'مانو'
'مالم_'
'مالات'
'ماكن'
'ماكان_'
'ماكا'
'ماق'
'مازل'
'مارلين_'
'مارغريت_'
'مارتي_'
'مارتي'
'مارتن_'
'مادي'
'ماجي_'
'ماثي'
'ماتوا_'
'ماالذي'
'مائة_'
'مائ'
'مئة_'
'مؤسف'
'مؤخرتي_'
'ليوم'
'ليه'
'لينا_'
'ليزي'
'ليز'
'ليب_'
'ليأ'
'لوني'
'لونه'
'لول'
'لوكاس_'
'لوق'
'لورين'
'لورد_'
'لورا_'
'لور'
'لوب'
'لوا_'
'لهما_'
'لنن'
'لنقل'
'لنفعل'
'لنس'
'لنجعل'
'لنبد'
'لمكتب'
'لمعل'
'لمصلح'
'لمشاهدة_'
'لمساعدة_'
'لمد'
'للوصول_'
'للور'
'للنا'
'للمز'
'للمرة_'
'للمح'
'للقو'
'للقتل'
'للغاي'
'للعي'
'للعش'
'للطعام_'
'للشف'
'للسيا'
'للرو'
'للرج'
'للحي'
'للحف'
'للحدي'
'للجر'
'للتر'
'للاع'
'للاس'
'للإهتمام_'
'للإس'
'للأك'
'لكون'
'لقتله'
'لقاء_'
'لفه'
'لغر'
'لغا'
'لعمل_'
'لطب'
'لضرب'
'لصالح_'
'لصا'
'لص_'
'لشيء_'
'لسن'
'لسماع'
'لزيار'
'لزو'
'لري'
'لرجل_'
'لرؤيتك_'
'لدقيق'
'لحم'
'لحضور'
'لحا'
'لتناول_'
'لتلك_'
'لتكون'
'لتك_'
'لتخبر'
'لبق'
'لبعض'
'لبر'
'لبت'
'لايمكنني_'
'لايع'
'لاني_'
'لانن'
'لامي'
'لاك'
'لاط'
'لاشئ_'
'لاش'
'لاز'
'لاحظ'
'لاث'
'لاتقلق'
'لاتق'
'لاتف'
'لاتع'
'لائق_'
'لاأع'
'لاء_'
'لإيجاد_'
'لإست'
'لإحضار'
'لأو'
'لأننى_'
'لأط'
'لأخذ'
'لأخب'
'لأجله'
'لآخ'
'كيند'
'كيز'
'كيا'
'كونه'
'كونر'
'كومة_'
'كولي'
'كولون'
'كولو'
'كورت'
'كنن'
'كنتما_'
'كنتم_'
'كما'
'كليف_'
'كلية_'
'كلوي_'
'كلكم_'
'كلب'
'كلام_'
'كلا'
'كق'
'كشر'
'كسا'
'كريست'
'كرج'
'كذا'
'كثر_'
'كتو'
'كبير'
'كبد'
'كبار'
'كاه'
'كانا_'
'كاميرا'
'كامي'
'كالا'
'كال_'
'كارول'
'كار_'
'كاد'
'كاتي'
'كائن'
'كاء_'
'كأس_'
'قيم'
'قيع_'
'قوط'
'قهوة_'
'قناع'
'قلق'
'قلبه'
'قطع'
'قضي'
'قسا'
'قرو'
'قرع'
'قرارا'
'قرار'
'قرأ'
'قذر_'
'قديم'
'قدمت_'
'قدر_'
'قتلوا_'
'قتلن'
'قبو'
'قبلي'
'قبله_'
'قبلة_'
'قبلا_'
'قان'
'قالته'
'قافه'
'قاسية_'
'قار'
'قاذ_'
'قاد_'
'فيني_'
'فيم'
'فيديو_'
'فيجب_'
'فوق'
'فوس'
'فورد_'
'فوج'
'فهل_'
'فنحن_'
'فنا_'
'فن_'
'فلور'
'فكيف_'
'فكرته'
'فكرت'
'فكر'
'فقدنا'
'فعلي_'
'فعلناها_'
'فطير'
'فطا'
'فضول'
'فضا'
'فسا'
'فريقي'
'فراش'
'فدع'
'فتحت'
'فالي'
'فاز'
'فارغة_'
'فاخر'
'فئ'
'فإنن'
'فأر'
'ــن'
'ــف'
'ــر'
'ـري'
'ـرا'
'ـذ'
'ـال'
'غيري_'
'غيرت'
'غية_'
'غوي'
'غوط'
'غوري'
'غوا'
'غه'
'غني_'
'غلي'
'غلطت'
'غفر'
'غطا'
'غضب'
'غرقت_'
'غرفته'
'غراي'
'غذ'
'غد_'
'غبيا'
'غبة_'
'غباء'
'غان_'
'غامض'
'غام'
'غالبا_'
'غاض'
'غاز_'
'عيون_'
'عينه_'
'عيناه'
'عيد'
'عودي_'
'عودوا_'
'عوا'
'عهم_'
'عندما'
'عنا'
'عملنا_'
'عمر_'
'عمال_'
'عما'
'عله'
'علمي_'
'علت_'
'علاقتنا_'
'علاقتك_'
'عظيم'
'عضوي'
'عصاب'
'عصا'
'عشر'
'عزيزتى_'
'عري'
'عرفته'
'عدن'
'عدك_'
'عداد_'
'عجبا_'
'عثر_'
'عبه_'
'عاصفة_'
'عادل_'
'عاب_'
'عائلت'
'عائ'
'ظني'
'ظننتك_'
'ظريف'
'ظري'
'ظرو'
'طيه_'
'طيس'
'طيا'
'طورة_'
'طوب'
'طوا_'
'طن_'
'طق'
'طفو'
'طفا'
'طعا'
'طط_'
'طس'
'طريقها_'
'طريقه_'
'طري'
'طبيعية_'
'طبيبا_'
'طبع'
'طب_'
'طالي'
'طاقم'
'طاق_'
'طارئ'
'طابق_'
'طابت_'
'ضين_'
'ضيع'
'ضوا_'
'ضوء_'
'ضمام_'
'ضعي_'
'ضعها_'
'ضره'
'ضربة_'
'ضجة_'
'ضباط'
'ضاع_'
'ضار'
'صول'
'صور'
'صناديق'
'صلو'
'صلا'
'صفر_'
'صفح'
'صفا'
'صعوب'
'صعبا_'
'صري'
'صرو'
'صديقتي_'
'صديقته'
'صديقات'
'صدقي'
'صدقا'
'صدف'
'صداق'
'صبي_'
'صاد'
'صاب_'
'شيلد'
'شيل_'
'شيك'
'شيف'
'شيطان'
'شية_'
'شيا_'
'شوا_'
'شهو'
'شهادة_'
'شنا'
'شم_'
'شكوك'
'شكله_'
'شقيقتي_'
'شفت'
'شعورك'
'شعره'
'شعر'
'شطير'
'شريط_'
'شريحة_'
'شرح_'
'شرائ'
'شحن'
'شجاعة_'
'شجار_'
'شتر'
'شبي'
'شبه'
'شبكة_'
'شبح'
'شاحن'
'شابة_'
'شأ'
'سيقتلو'
'سيقا'
'سيفعل_'
'سيـد'
'سيعي'
'سيش'
'سيساعد'
'سيده'
'سيدفع_'
'سويت'
'سول_'
'سوق_'
'سودا'
'سوب'
'سواء_'
'سنل'
'سنش'
'سنتح'
'سنتا'
'سنت_'
'سنبدأ_'
'سنأخذ'
'سمك'
'سمعته_'
'سمع_'
'سمح'
'سلك'
'سلسل'
'سلبي'
'سلاحك_'
'سكين_'
'سكين'
'سكرتير'
'سكران'
'سكان_'
'سع_'
'سس_'
'سريع_'
'سرير_'
'سرية_'
'سرقت'
'سرطان'
'سخي'
'سحر_'
'ستيوارت_'
'سته'
'ستنت'
'ستموت'
'ستل'
'ستقول'
'ستغ'
'ستض'
'ستصبح_'
'ستري'
'سترت'
'سترة_'
'ستخبرن'
'ستحصل_'
'ستحصل'
'ستجد'
'ستج'
'ستبدأ_'
'ستأتي_'
'سبول_'
'سبور'
'سبن'
'سبر'
'سبة'
'سامي'
'ساعدي'
'ساعدت_'
'ساعت'
'سارت'
'ساخ'
'سات'
'سابق'
'سئمت_'
'سأنتظر'
'سألت_'
'سأفعله'
'سأفت'
'سأص'
'سأرسل'
'سأدخل_'
'سأخرج_'
'سأخبر_'
'سأخب'
'سأحاول_'
'سأتو'
'زيم'
'زيز'
'زياد'
'زوجها_'
'زواج_'
'زمي'
'زمو'
'زلة_'
'زلا'
'زته'
'زاوي'
'زامي'
'زات_'
'زائ'
'ريو_'
'ريو'
'رينا'
'ريكس'
'ريح'
'ريتا_'
'رومان'
'روم'
'روفي'
'روف'
'روع'
'رودي'
'رود'
'روجر_'
'روبي'
'روبن_'
'رنج_'
'رن_'
'رقة_'
'رفع_'
'رفع'
'رفضت_'
'رعاية_'
'رطي'
'رش_'
'رحلتك_'
'رحل'
'رجلك_'
'رجالي_'
'رجال'
'رث_'
'رث'
'رتك_'
'ربه'
'ربحت'
'رايت_'
'رامي'
'راق'
'رافي'
'راغ'
'راضي'
'راض'
'راش'
'راسة_'
'رائعه_'
'رئيس'
'رؤيته_'
'رأيي_'
'ذهاب'
'ذلـ'
'ذكية_'
'ذكرت'
'ذره_'
'ذج_'
'ذت_'
'ذبية_'
'ذبه'
'ذبا'
'ذاع'
'ذئب'
'ديون_'
'ديلان_'
'ديكو'
'ديفيس_'
'ديريك_'
'ديب'
'ديا_'
'دوغ'
'دورا'
'دوب'
'دواء'
'دماغك_'
'دلي'
'دفعة_'
'دعيه'
'دعي_'
'دعي'
'دعمن'
'دس_'
'دز'
'دري_'
'درج'
'دراجت'
'درات'
'دد'
'دج'
'دبا'
'دايا'
'دانيال_'
'دامي'
'دافن'
'داع_'
'داع'
'دائم_'
'دائرة_'
'خيل'
'خوف_'
'خور_'
'خه_'
'خمن_'
'خلق_'
'خلفك_'
'خلف'
'خلع'
'خفض_'
'خفض'
'خطبك_'
'خصوصي'
'خصوصا_'
'خزن'
'خرية_'
'خذو'
'خذلت'
'خدعت'
'خاطر'
'خائفا_'
'خائف'
'حيم_'
'حيل_'
'حياتى'
'حيات'
'حني_'
'حنا_'
'حمراء_'
'حلم'
'حكيم'
'حكو'
'حفي'
'حفل'
'حفا'
'حطم'
'حسبت'
'حسب'
'حساس_'
'حساء_'
'حزينة_'
'حرق'
'حدو'
'حدثت'
'حدا'
'حجر_'
'حثي'
'حتم'
'حبوب_'
'حبل'
'حاولي_'
'حاولنا_'
'حاله_'
'حافة_'
'حاض'
'حائ'
'حاء'
'جيو'
'جيني'
'جينز_'
'جيلي'
'جيكو'
'جيف_'
'جيش'
'جيسون_'
'جيس_'
'جيت'
'جيا_'
'جى_'
'جونس'
'جوم_'
'جوليا_'
'جول_'
'جوش'
'جوس'
'جوز'
'جوري'
'جودي_'
'جوان'
'جواب_'
'جهو'
'جنيه'
'جنو'
'جنرال'
'جنب_'
'جمع_'
'جلست'
'جعله_'
'جرح'
'جراي'
'جذاب'
'جح_'
'جبان_'
'جايس'
'جاهزي'
'جانب'
'جال'
'جاسوس'
'جاس'
'جئنا_'
'جأ_'
'ثون_'
'ثورن'
'ثوب'
'ثناء_'
'ثمين'
'ثمانية_'
'ثمان'
'ثـ'
'ثرو_'
'ثدي'
'ثانيه_'
'تيت'
'تية_'
'توي'
'تون'
'توقع'
'توصيل'
'تورط'
'تودي'
'توجب_'
'توافق'
'توا_'
'تهرب_'
'تهانينا_'
'تها'
'تنوي'
'تنه'
'تنم'
'تنك'
'تنح'
'تناولت_'
'تناق'
'تمهل_'
'تمه'
'تمني'
'تمطر'
'تمزح'
'تمري'
'تمد'
'تمث'
'تلو'
'تله'
'تلمي'
'تلقى_'
'تلق'
'تلتق'
'تلبس'
'تلاحظ'
'تكونوا_'
'تكلمت_'
'تكره_'
'تكر'
'تكتب_'
'تقومين_'
'تقولين_'
'تقنيا'
'تقم'
'تقضي_'
'تقصدين_'
'تقرر'
'تقدر'
'تقد_'
'تقبيل'
'تقبل'
'تقال'
'تفكير_'
'تفكري_'
'تفضلوا_'
'تفضل'
'تفتح_'
'تف_'
'تغيرت_'
'تغض'
'تغرق_'
'تغا'
'تعودي'
'تعني'
'تعليم_'
'تعلمن'
'تعلمت_'
'تعقي'
'تعطيه'
'تعطين'
'تعري'
'تظر'
'تطي'
'تطلب'
'تصم'
'تصفي'
'تصدقين'
'تصبحين_'
'تصبحي_'
'تصاب_'
'تشير_'
'تشعر'
'تشتر'
'تسي'
'تسوي'
'تستغ'
'تستط'
'تسببت'
'تريدينه_'
'تريدي_'
'تريدون_'
'ترون'
'تركه'
'تركز_'
'ترقي'
'ترحل'
'تراي'
'تراف'
'تراجع_'
'تذكرين'
'تذكري_'
'تذكروا'
'تدفع'
'تدريب_'
'تدري'
'تخيل'
'تخي'
'تخليت_'
'تخط'
'تخص'
'تخسر_'
'تخد'
'تختفي_'
'تختار_'
'تخبرين'
'تخبره'
'تحيات'
'تحويل_'
'تحو'
'تحلي'
'تحسين'
'تحس'
'تحركي_'
'تحديدا_'
'تحتم'
'تحبي'
'تحاولين_'
'تجو'
'تجن'
'تجمع_'
'تجرؤ_'
'تجدي_'
'تجدي'
'تجد'
'تجاوزت_'
'تجاوز_'
'تثق'
'تتوقف'
'تتوقع'
'تتنا'
'تتن'
'تتف'
'تتعلم_'
'تتظ'
'تتسكع'
'تتزوج_'
'تتا'
'تبه'
'تبكي'
'تبحثو'
'تايلر_'
'تاو'
'تان'
'تاف'
'تاع_'
'تاجر_'
'تؤمن_'
'تؤذ'
'تأم'
'تأخذي'
'تأخ'
'تأثير_'
'تأتي'
'ةو'
'بيوت'
'بينك_'
'بيته'
'بيب'
'بيان_'
'بوومز_'
'بورك'
'بورت'
'بوج'
'بنفسها_'
'بمنا'
'بمفردي_'
'بمفرده'
'بمفردك'
'بمساعد'
'بمحا'
'بمثل_'
'بلون_'
'بله'
'بلق'
'بلع'
'بلان'
'بكو'
'بكا'
'بقى_'
'بقليل_'
'بقضي'
'بفت'
'بغض_'
'بعيدة_'
'بعه_'
'بعملك'
'بعضا'
'بعدم_'
'بعت'
'بطة_'
'بضرب'
'بصمات'
'بصعوبة_'
'بصر'
'بشيئ'
'بشع'
'بشخص'
'بشا'
'بشأنه'
'بسببي_'
'بسببك_'
'برون'
'بروك_'
'برها'
'برنا'
'برمته'
'برم'
'برلي'
'برغ'
'براد'
'برات_'
'برا_'
'بديل'
'بدل_'
'بدا_'
'بدأن'
'بخي'
'بخل'
'بحياتك_'
'بحياة_'
'بحج'
'بحاجه_'
'بث_'
'بث'
'بته_'
'بتم'
'بتج'
'ببط'
'بايبر_'
'باه'
'باني'
'بانه'
'بانك_'
'بانت'
'بالنظر_'
'بالمنزل_'
'بالمن'
'بالملل_'
'بالمك'
'بالمقابل_'
'بالمخ'
'بالكل'
'بالعالم_'
'بالصدفة_'
'بالشرطة_'
'بالسل'
'بالذهاب_'
'بالدخول_'
'بالحقيقة_'
'بالحب_'
'بالأل'
'بالأع'
'باقي_'
'باش'
'بادل_'
'باخ'
'باتي'
'بابن'
'بإر'
'بإح'
'بأع'
'بأص'
'ايو'
'ايه_'
'ايمي_'
'ايما'
'ايد'
'ايجاد'
'ايتها_'
'ايام'
'اوك'
'اود_'
'اهر_'
'انو_'
'انقا'
'انـ'
'انسا'
'انتي'
'انتظرو'
'انتظرت_'
'انتش'
'امين'
'امه'
'املك'
'امريك'
'امات_'
'اليو'
'اليهود'
'الول'
'الوقوف_'
'الوظيف'
'الوطني'
'الوج'
'الوادي_'
'الهوا'
'الهنود_'
'الهروب_'
'النور_'
'النقطة_'
'النفسي_'
'النفس_'
'النع'
'النصف_'
'النص_'
'النجم_'
'النجا'
'النبيذ_'
'الناحية_'
'الميكر'
'الموض'
'الموجود_'
'المواع'
'المهم_'
'المهم'
'المناسبة_'
'الملكي'
'الملف_'
'الملعون'
'الملعب_'
'الملاحظ'
'الملائ'
'المكسيك'
'المقعد_'
'المقبل_'
'المقال'
'المفاج'
'المغف'
'المغامر'
'المعيشة_'
'المعرك'
'المعدل'
'المطر'
'المشهد_'
'المسر'
'المسب'
'المسار'
'المريض_'
'المرحلة_'
'المذكر'
'المدي'
'المختل'
'المختبر_'
'المحمول'
'المحقق'
'المحر'
'المحدد'
'المحافظ'
'المجيء_'
'المجهو'
'المجنون'
'المجموع'
'المثل'
'المثالي'
'المثال_'
'المتحد'
'المتاعب_'
'المباراة_'
'المالية_'
'المالك_'
'المائ'
'المؤسف_'
'اللوحة_'
'اللعي'
'اللج'
'اللبا'
'الكونغ'
'الكهرب'
'الكمبيوتر_'
'الكفا'
'الكش'
'الكس'
'الكريس'
'الكتاب'
'الكبار_'
'القيم'
'القوى_'
'القناة_'
'القمامة_'
'القفز_'
'القسم_'
'القرن'
'القرف_'
'القذر_'
'القذا'
'القتلة_'
'القتال_'
'القبو'
'القاسي'
'القارب_'
'القادة_'
'القاد'
'الفني'
'الفكر'
'الفقر'
'الفراش'
'الفح'
'الفترة_'
'الفاش'
'الفار'
'الفات'
'الفائدة_'
'الفأر'
'الغري'
'الغرف_'
'الغب'
'الغاز_'
'العني'
'العنكبوت_'
'العنف_'
'العناية_'
'العميل'
'العمي'
'العملاء_'
'العمدة_'
'العما'
'العكس_'
'العقل'
'العقد_'
'العط'
'العشري'
'العشب_'
'العسل_'
'العزيز'
'العال'
'العاصفة_'
'العاص'
'العائل'
'الظروف_'
'الطلق'
'الطلب_'
'الطل'
'الطبيبة_'
'الطب'
'الطائر_'
'الطائ'
'الضي'
'الضعف'
'الضحايا_'
'الصيد'
'الصعو'
'الصع'
'الصخر'
'الصحفي'
'الصحاف'
'الصال'
'الصار'
'الشيطان_'
'الشياطين_'
'الشهود_'
'الشكل_'
'الشفا'
'الشعب'
'الشرط'
'الشجاعة_'
'الشتاء_'
'الشب'
'الشاطئ_'
'السيدات_'
'السيئ'
'السيء_'
'السوداء_'
'السنين_'
'السلوك_'
'السلط'
'السكي'
'السقف'
'السعر_'
'السط'
'السري_'
'السخيف'
'الساف'
'الساحر'
'الزيارة_'
'الزم'
'الزفاف_'
'الزجاجة_'
'الزجاج'
'الرص'
'الرسم'
'الرسائل_'
'الرد'
'الرجا'
'الربع_'
'الراقص'
'الرائحة_'
'الذي'
'الذكر'
'الذئ'
'الدين'
'الديك_'
'الدور'
'الدواء_'
'الدمية_'
'الدماغ_'
'الدرج_'
'الدراس'
'الدائ'
'الخيارات_'
'الخنزير_'
'الخنا'
'الخمر_'
'الخسا'
'الخرد'
'الخدمة_'
'الخدم'
'الخبر'
'الخامسة_'
'الخاص'
'الخاسر'
'الخارجي'
'الحيوان_'
'الحيوا'
'الحي_'
'الحميم'
'الحلو'
'الحكوم'
'الحقيقه_'
'الحقو'
'الحقائ'
'الحق'
'الحفاظ_'
'الحضور_'
'الحسابات_'
'الحساب_'
'الحس'
'الحز'
'الحراس'
'الحرا'
'الحذر_'
'الحديد'
'الحانة'
'الحاك'
'الحاسوب'
'الحار'
'الحادي'
'الحادث'
'الحاج'
'الجوار'
'الجمال_'
'الجماع'
'الجام'
'الثما'
'الثل'
'الثقة_'
'الثق'
'التواصل_'
'التهديد_'
'التمث'
'التقي'
'التقط'
'التفاصيل_'
'التغي'
'التعليم'
'التصوير'
'الترك'
'التحو'
'التحلي'
'التحف'
'التحرك_'
'التحدي'
'التجميل'
'التجاري'
'التجار'
'التاسعة_'
'التأم'
'البيض_'
'البول'
'البند'
'البلو'
'البطاق'
'البضا'
'البش'
'البرية_'
'الباك'
'الاولى_'
'الانتقا'
'الامر'
'الامت'
'الاما'
'الاك'
'الاقل'
'الافضل_'
'الاستماع_'
'الاستخبارات'
'الارض_'
'الاخرى_'
'الاخبار_'
'الاجتماع_'
'الاثنان_'
'الابد'
'الابت'
'الإنتقا'
'الإمبراطور'
'الإم'
'الإله_'
'الإعتذار_'
'الإع'
'الإضافي'
'الإشار'
'الإسعاف_'
'الإجرا'
'الإجتماع_'
'الإجتماع'
'الإجابة_'
'الإثنان_'
'الإث'
'الإبت'
'الأولاد_'
'الأول'
'الأوس'
'الأمير_'
'الأمس_'
'الأمريكي'
'الأمامية_'
'الأفك'
'الأشجار_'
'الأشباح_'
'الأسنان_'
'الأسلحة_'
'الأسفل_'
'الأسرار_'
'الأسر'
'الأساسي_'
'الأرو'
'الأذ'
'الأدو'
'الأدلة_'
'الأخيره_'
'الأخوا'
'الأثن'
'الأبو'
'الآلا'
'الآخ'
'اكتشاف'
'اقي_'
'اقن'
'اقل'
'اقطع'
'اقترب_'
'اقا_'
'اقا'
'افق_'
'افعله_'
'افحص'
'افتقد'
'اعود_'
'اعذر'
'اعتذر'
'اعتد'
'اظ_'
'اطلق'
'اطلاق'
'اضع_'
'اصمت'
'اصلاح'
'اصل_'
'اصل'
'اشرب'
'اشتريت_'
'اش_'
'استي'
'استمع'
'استمر_'
'استغ'
'استعداد'
'استعا'
'استطعت_'
'استطاع'
'استرا'
'استخدم'
'استج'
'اسب'
'ازات_'
'اريخ_'
'ارن'
'اركض'
'ارع'
'ارجع_'
'ارتدي'
'ارتد'
'ادم'
'ادفع'
'ادا_'
'اخي'
'اختلق'
'اخبار'
'احن'
'احتمال_'
'احبه'
'احا'
'اجلس'
'اجعل'
'اجع'
'اتين'
'اتهم_'
'اتكم_'
'اتعلم'
'اتصالا'
'اتس'
'اتخذت'
'اتخ'
'اتحدث_'
'ابو'
'ابنه_'
'ابنة_'
'ابع'
'ابتع'
'ابات_'
'اا'
'ائن_'
'ائح_'
'ئيس_'
'ئنا_'
'ئـ'
'ئع_'
'ئع'
'ئز_'
'ئد_'
'ئا'
'إيم'
'إيلا'
'إيفان_'
'إيفا'
'إيف'
'إيرين'
'إيرل'
'إيدي_'
'إياها_'
'إهدأ_'
'إهتمام'
'إنهـا_'
'إنق'
'إنفجار_'
'إنسان'
'إنج'
'إنتظار_'
'إنتبه'
'إمكان'
'إليكم'
'إلام_'
'إقناع'
'إقتل'
'إفتح'
'إغلاق'
'إعلان'
'إعطاء_'
'إعد'
'إعتر'
'إطل'
'إطفا'
'إضافية_'
'إضافة_'
'إضا'
'إسمك_'
'إسمعي'
'إستر'
'إستخدم'
'إزالة_'
'إرس'
'إرج'
'إرب'
'إذا'
'إدارة_'
'إحض'
'إحساس'
'إجلس_'
'إجابة_'
'إثب'
'إتصلت_'
'إتصال_'
'إتج'
'إبنك_'
'إبقا'
'إبدأ'
'ؤه_'
'ؤك'
'ؤال'
'أيت'
'أوقف_'
'أوراق'
'أوج'
'أوافق'
'أنواع_'
'أنهي'
'أنهض'
'أنفسهم_'
'أنفس'
'أنفاس'
'أنف_'
'أنـه'
'أنـك_'
'أنــ'
'أنصت'
'أندري'
'أندر'
'أند'
'أنجلو'
'أنتظر'
'أنام_'
'أمي'
'أمها'
'أمني'
'أمنا_'
'أملي_'
'أمسك_'
'أمريكية'
'أمريكي_'
'أمرك_'
'أماند'
'أمامك_'
'ألك'
'ألقي'
'ألق_'
'ألعاب_'
'ألست_'
'ألتق'
'ألاف'
'أل_'
'أكثر'
'أكت'
'أقدام_'
'أقترح'
'أقت'
'أقابل'
'أفك'
'أفسد'
'أغير_'
'أغني'
'أغلق_'
'أغلق'
'أغف'
'أغراضك'
'أغر'
'أعطيك_'
'أعطيت_'
'أعطان'
'أعر'
'أعثر_'
'أعتق'
'أعتر'
'أعتد'
'أطي'
'أطلقت_'
'أصلا_'
'أصعب_'
'أصبحن'
'أشتري'
'أسه'
'أسمح_'
'أسل'
'أسعد_'
'أسد'
'أستق'
'أستا'
'أستأ'
'أسبا'
'أساعدك_'
'أسأ'
'أزر'
'أريـ'
'أريده'
'أرن'
'أرم'
'أرق'
'أرد_'
'أرجع'
'أرتدي'
'أدعك_'
'أخيك_'
'أخير'
'أخطا'
'أخطأ'
'أخط'
'أخري_'
'أخرجن'
'أختك_'
'أختر'
'أخبرو'
'أخب'
'أخ_'
'أحيا'
'أحلام_'
'أحل'
'أحظى_'
'أحضرت'
'أحسب'
'أحز'
'أحرزنا_'
'أحتر'
'أحتاجه_'
'أجيبي_'
'أجز'
'أجر_'
'أجبن'
'أتينا_'
'أتمكن_'
'أتما'
'أتكلم_'
'أتعلمون_'
'أتض'
'أتش'
'أتسمع'
'أتذكر'
'أتدري'
'أتخل'
'أتأكد_'
'أتأ'
'أبى_'
'أبوا'
'أبني_'
'أبـ'
'أبعد'
'أبتعد'
'آمنا_'
'آخرون_'
'آخذه'
'آت'
'ءال'
'ءات_'
'؟ "'
'؛'
'é_'
'´_'
'ª_'
'} '
'zzl'
'zines'
'zie'
'zard'
'yöu'
'your'
'yli'
'yellow_'
'year'
'yc'
'yb'
'yal'
'x1'
'writing_'
'wrap'
'wow_'
'wolf_'
'woke_'
'wly_'
'wives_'
'wishe'
'wipe'
'winter_'
'wins'
'windows_'
'wid'
'wic'
'whisper'
'wheel_'
'wet'
'wel'
'wears_'
'weak'
'watch'
'wast'
'warnin'
'warming_'
'ward'
'wanting_'
'wander'
'walle'
'vote'
'volunt'
'voi'
'vita'
'virgin'
'village_'
'view_'
'vian_'
'via_'
'vet'
'vest_'
'veri'
'vate'
'vas'
'vamp'
'value'
'uss'
'uses_'
'ure'
'urd'
'urc'
'ups'
'unsu'
'uniform_'
'unh'
'underwear_'
'underst'
'unce'
'unb'
'uls'
'ull'
'uld'
'ulate'
'ugl'
'ught'
'uel_'
'ude'
'ud'
'uck'
'uce'
'uble_'
'twist_'
'tum'
'tube'
'tted_'
'tta'
'tso'
'trusted_'
'trou'
'tries_'
'tricks_'
'trauma_'
'trap'
'transfer_'
'tradition'
'torture'
'tors'
'toe'
'toc'
'tles'
'tire'
'tings_'
'tine'
'time'
'thy'
'threatened_'
'threa'
'thous'
'thl'
'thin'
'thief_'
'thea'
'thank'
'text'
'terri'
'term_'
'tering'
'tens'
'technology_'
'techni'
'tear'
'tching_'
'tc'
'tate'
'task_'
'tap'
'tant'
'tai'
'tag'
'tab'
'swo'
'susp'
'surp'
'surge'
'surf'
'summ'
'sugar_'
'sucks_'
'sucke'
'successful_'
'suc'
'subs'
'style_'
'struggl'
'stro'
'strate'
'straight'
'storage_'
'stoo'
'stone_'
'stoc'
'stit'
'stion'
'stink'
'sten'
'steal'
'stay'
'status_'
'stas'
'stam'
'ssion_'
'ssa_'
'spy_'
'spoo'
'spon'
'split_'
'spit'
'speech_'
'special'
'spar'
'south_'
'sons_'
'somehow_'
'someday_'
'soli'
'soldiers_'
'soft'
'sniff'
'slop'
'slipp'
'slip'
'slice_'
'sle'
'slap_'
'skin'
'ski_'
'six'
'sive_'
'siti'
'sion_'
'sin_'
'simple'
'simi'
'silence'
'sigh'
'sie'
'shri'
'show'
'shout'
'shore'
'shop'
'shoe'
'shine'
'sheriff_'
'shee'
'sharp'
'shape'
'shadow'
'shad'
'sex'
'severe'
'settle'
'servant_'
'seria'
'sensi'
'secure_'
'secretary_'
'secret'
'screwing_'
'screw_'
'school'
'sch'
'scary_'
'scan'
'sbu'
'sava'
'sav'
'sar'
'san_'
'sample'
'sales'
'sale_'
'rypt'
'rying_'
'rupt_'
'rup'
'rumo'
'ruined_'
'ruin_'
'rui'
'rug'
'rub'
'rti'
'rsi'
'rre'
'rp'
'rout'
'ror_'
'rooms_'
'roommate'
'rocks_'
'robbery_'
'rna'
'rmin'
'rm'
'riv'
'rity_'
'ripp'
'rights_'
'rid'
'reward'
'retire'
'restr'
'resse'
'responsibility_'
'reserv'
'resent'
'request'
'reputation_'
'reports_'
'reporter'
'report'
'repeat_'
'ren_'
'remar'
'religion_'
'relief_'
'reli'
'rele'
'relax_'
'rej'
'region'
'refused_'
'recon'
'recommend'
'recognized_'
'recognize_'
'recent'
'rebel'
'reaction_'
'react'
'reach'
'rds'
'rcis'
'rch_'
'rape'
'ral'
'rain_'
'raid'
'rage_'
'radio'
'radi'
'quish'
'puts_'
'punished_'
'punish'
'punche'
'pun'
'pula'
'ption'
'pti'
'psych'
'protest'
'protect'
'propose'
'propos'
'property_'
'profession'
'proc'
'prize_'
'prisoner'
'pris'
'principle'
'princess_'
'priest_'
'president_'
'prep'
'prefe'
'precis'
'ppy_'
'powerful_'
'pool_'
'policy_'
'pole'
'pointe'
'poet'
'plot'
'plas'
'pizza_'
'pist'
'piss_'
'pis'
'pin_'
'pilot'
'pill'
'pile'
'pieces_'
'physical'
'phra'
'photos_'
'photographer'
'photograph'
'period'
'peni'
'peek'
'ped'
'pector'
'pect_'
'peaceful'
'passi'
'partners_'
'part'
'park'
'pard'
'parano'
'paradi'
'paperwork_'
'pants_'
'paint'
'page'
'owned_'
'overl'
'overhea'
'ove'
'outfit'
'oun'
'ough'
'ots_'
'otion'
'orte'
'ort_'
'order'
'operate_'
'oon'
'ook'
'onto_'
'onal'
'onable_'
'ology_'
'olic_'
'oles'
'oke'
'oin'
'offering_'
'offend'
'obsession_'
'obe'
'nuc'
'ntly_'
'nsi'
'noti'
'north'
'nor'
'nol'
'nip'
'nger_'
'neighborhood_'
'neighbor'
'nearly_'
'ndr'
'nderst'
'nation'
'mystery_'
'music'
'mum_'
'mpt'
'movies_'
'mourn'
'motion_'
'motherfucker'
'moral'
'mood'
'mony_'
'monster'
'moc'
'mix_'
'misu'
'mistake'
'mist'
'miser'
'ming_'
'mina'
'mile_'
'mighty_'
'mic_'
'mess'
'mers'
'mere'
'mentioned_'
'memo'
'memb'
'media_'
'meantime_'
'mble'
'mbe'
'math_'
'match'
'massive_'
'marr'
'marin'
'map'
'manu'
'make'
'major_'
'maintain'
'magi'
'magazine_'
'mach'
'lun'
'low'
'lover'
'loud'
'lotte'
'lots_'
'loser'
'lor_'
'logical_'
'lob'
'loan_'
'lity_'
'liqu'
'lips_'
'lig'
'lift'
'lie'
'librar'
'lev'
'len_'
'lege'
'legal_'
'laye'
'laugh_'
'lation'
'lat'
'las_'
'lake_'
'lai'
'kov'
'ko_'
'know'
'knock_'
'knock'
'kno'
'knees_'
'knee'
'kn'
'kle_'
'kle'
'kit'
'kissing_'
'kissed_'
'kidney_'
'kidnapped_'
'kidn'
'keys'
'junk'
'jun'
'jumping_'
'joy'
'journal'
'joking_'
'joined_'
'join'
'jection'
'jay_'
'jam'
'jacket'
'ized_'
'ization_'
'ix_'
'ive'
'iva'
'itu'
'its'
'issue_'
'ission'
'ism_'
'io_'
'involv'
'inva'
'introduce'
'intention_'
'intense'
'intelligent_'
'intelligence_'
'insult'
'insti'
'inspir'
'insi'
'inj'
'inh'
'informed_'
'infectio'
'ines_'
'individual'
'indic'
'increase'
'including_'
'inat'
'inal'
'impression'
'import'
'impl'
'ime_'
'imaginati'
'ileg'
'ik'
'ige'
'ifie'
'idiots_'
'idi'
'idea'
'icia'
'icer'
'ibu'
'ians_'
'ial'
'huntin'
'hunter_'
'humani'
'hs'
'horn'
'hop_'
'hooke'
'hood_'
'hon_'
'homeless_'
'hole'
'hobb'
'hl_'
'hits_'
'hire_'
'hips_'
'hing_'
'hing'
'hin_'
'hil'
'hid'
'hh'
'hesi'
'hers_'
'heel'
'heat_'
'heart'
'hears'
'health'
'harde'
'hara'
'happie'
'hande'
'hamme'
'hal'
'habi'
'gym_'
'guts_'
'gus_'
'gus'
'groan'
'grew_'
'gress'
'gree'
'greatest_'
'great'
'gre'
'grave'
'gram'
'graduat'
'gon_'
'golf_'
'giv'
'gio'
'gim'
'giant_'
'ghe'
'gha'
'gentle'
'gent'
'generation'
'gear_'
'gati'
'gall'
'fy_'
'funeral_'
'fund'
'function'
'ful'
'fuel_'
'fruit_'
'friends'
'fri'
'frag'
'fourt'
'forth'
'foolish_'
'followed_'
'fold'
'focus_'
'fn'
'flower_'
'floo'
'flag'
'fixed_'
'fit'
'firm_'
'fir'
'fing'
'final_'
'fina'
'filt'
'film'
'fig'
'ffin'
'ffee'
'fet'
'fest'
'fence'
'feast_'
'fe_'
'favour'
'fath'
'fat_'
'fashion'
'fantastic_'
'familiar_'
'fai'
'fade'
'faci'
'ez_'
'eye'
'extraordinary_'
'extr'
'experienc'
'existe'
'execut'
'exe'
'exa'
'events_'
'ett_'
'etin'
'etic'
'estate'
'esta'
'esp'
'eso'
'erve'
'ert_'
'ering_'
'erati'
'equa'
'ept'
'ente'
'enta'
'enn'
'enli'
'eni'
'enga'
'enda'
'empty_'
'employe'
'embarrass'
'elled_'
'electr'
'eld_'
'eld'
'ela'
'ehouse_'
'eh_'
'eem'
'eed_'
'edge'
'eas'
'ean'
'eak'
'dus'
'dso'
'ds'
'drink'
'dreds_'
'dreaming_'
'dream'
'dor'
'dom'
'dollar_'
'dne'
'dle'
'div'
'dit'
'disturb'
'dist'
'disre'
'disp'
'dise'
'discover'
'directly_'
'directi'
'direct'
'dim'
'dil'
'differen'
'diamond'
'di_'
'device_'
'details_'
'destruct'
'destroyed_'
'destin'
'desp'
'desc'
'demons_'
'dema'
'delay'
'deg'
'definit'
'defens'
'deepe'
'deco'
'decisi'
'dece'
'dealing_'
'daw'
'date'
'das'
'dal_'
'dal'
'cycl'
'cure_'
'ction'
'crushe'
'crus'
'crowd_'
'criminal_'
'crim'
'creep'
'creature_'
'creati'
'cream_'
'court'
'courage_'
'costume_'
'cord'
'copy'
'cop'
'coop'
'cooking_'
'cook_'
'convict'
'conven'
'controlled_'
'contract'
'cont'
'consu'
'const'
'considered_'
'connection_'
'confusi'
'confirm_'
'confe'
'conduct'
'compo'
'compliment'
'compli'
'compare'
'compar'
'communi'
'commit_'
'commerc'
'commande'
'comfortable_'
'comed'
'combin'
'comb'
'coma'
'collect_'
'collect'
'cola'
'coat'
'clou'
'clock_'
'client'
'clearly_'
'cleare'
'cleane'
'cker_'
'circle'
'cious_'
'cide'
'chosen_'
'cho_'
'chip'
'chess_'
'cher_'
'cher'
'chemi'
'checking_'
'charges_'
'charge'
'chair_'
'cemetery_'
'celebrit'
'cca_'
'cave'
'cats_'
'cation'
'cate'
'casi'
'carrying_'
'carri'
'capab'
'calc'
'butt_'
'busted_'
'bust_'
'burs'
'buff'
'bucks_'
'brush'
'brid'
'brick'
'breathe_'
'breath_'
'breast'
'breach'
'brave_'
'branch'
'bra_'
'boy'
'bows_'
'bour'
'bone'
'bond'
'bol'
'bodies_'
'bles'
'blas'
'blank'
'bitte'
'bis'
'billion_'
'bid'
'bi_'
'betray'
'bet'
'besides_'
'benefit'
'bend'
'bell_'
'behav'
'beh'
'began_'
'beep'
'bee'
'beauty_'
'beat'
'bear'
'beach_'
'bbo'
'batt'
'basement_'
'baseball_'
'band'
'bala'
'awar'
'awake'
'ault'
'attorney_'
'attitude_'
'ativ'
'ate'
'ata'
'associat'
'assh'
'assault_'
'article_'
'ard'
'arch'
'approve'
'appropriate_'
'appre'
'application_'
'any'
'antly_'
'ano_'
'anit'
'ani'
'angle'
'angel'
'ange'
'andon'
'ana_'
'amo'
'amen'
'ambush'
'ambi'
'alu'
'alter'
'als_'
'alien'
'alia'
'alert_'
'alcohol_'
'alc'
'albu'
'alarm'
'ak_'
'aith'
'aig'
'agr'
'agin'
'aggr'
'aged_'
'age'
'afternoon_'
'afford_'
'affair'
'adult'
'adopt'
'admit_'
'ade_'
'activit'
'ace'
'account'
'accord'
'accid'
'above_'
'ably_'
'aba'
'] '
'\u '
'Zoe'
'Z_'
'Wy'
'Wu'
'Within_'
'With'
'Wild'
'Wes_'
'Wes'
'Wen'
'Well'
'Was'
'War_'
'Wall'
'Walker_'
'Walk'
'Virginia_'
'Victoria'
'Vale'
'V_'
'Until_'
'Underst'
'Und'
'UT'
'UGH'
'UC'
'Twi'
'Top_'
'Tomorrow_'
'Tob'
'Tin'
'Timmy_'
'Tiger_'
'Though_'
'Thir'
'Thank'
'Texas_'
'Terri'
'Ten_'
'Tel'
'THIN'
'Swi'
'Sui'
'Stra'
'Stone'
'States_'
'Start'
'Stan_'
'Spider_'
'Sophie_'
'Sis'
'Silver'
'Sid'
'Should'
'Sho'
'Securit'
'Sec'
'Sean_'
'Sca'
'Sc'
'Sau'
'San_'
'Sab'
'SS'
'SP'
'SI'
'SHE'
'Russian'
'Ross_'
'Robin_'
'Robb'
'Rita_'
'Ring'
'Ren'
'Rela'
'Red'
'Rebe'
'Ray'
'Rat'
'Raj'
'Rac'
'RY'
'RS_'
'Quinn_'
'Quick'
'Qui'
'Queen_'
'Pull'
'Psych'
'Prote'
'Problem_'
'Pou'
'Port'
'Pop_'
'Poor_'
'Poi'
'Plus_'
'Pin'
'Pic'
'Phill'
'Phe'
'Perfect_'
'Penn'
'Patric'
'Park_'
'Papa_'
'Palm'
'PR_'
'PI'
'PD_'
'Oliver_'
'Ohh_'
'OR_'
'OD'
'North'
'Norm'
'Nik'
'Nav'
'Natha'
'Natalie_'
'Nancy_'
'NO_'
'NI'
'Mys'
'Mum_'
'Mos'
'Moo'
'Monk'
'Mitchell_'
'Mini'
'Mick'
'Michelle_'
'Mia'
'Mea'
'McC'
'Matt_'
'Marshall_'
'Marine'
'Marg'
'Mann'
'Mag'
'MI'
'MEN'
'Louis_'
'London_'
'Lily_'
'Lev'
'Leona'
'Leon_'
'Lau'
'Land_'
'Lake'
'Lady_'
'Lad'
'LL'
'LD_'
'Know'
'Kn'
'Kin'
'Key'
'Kenne'
'Ken_'
'Karen_'
'June_'
'Julia'
'Juli'
'Johnson_'
'Joan'
'Jet'
'Jenny_'
'Japanese_'
'Jacob'
'Iv'
'Isla'
'Isa'
'Iris'
'Instead_'
'Indi'
'Ic'
'IT'
'IM'
'However_'
'Hor'
'Hong_'
'Home_'
'Holly'
'Hit_'
'Him_'
'Hayes_'
'Haw'
'Having_'
'Hav'
'Harvey_'
'Hard'
'Half'
'HER'
'Gua'
'Grif'
'Greg'
'Green_'
'Graham_'
'Govern'
'Got'
'Good'
'Gonna_'
'Gir'
'Gin'
'German'
'Gentle'
'Gary_'
'Gall'
'GI'
'Freeze_'
'Francis_'
'Foun'
'Fortun'
'Fort'
'Fore'
'Forc'
'Fish'
'Fire'
'FOR'
'FFFF_'
'Evan_'
'Eva_'
'Eth'
'Enjoy_'
'Emperor_'
'Emma_'
'Elle'
'East_'
'ERI'
'EL'
'EA'
'Dur'
'Drive'
'Dr'
'Down'
'Doug'
'Dol'
'Direct'
'Din'
'Desp'
'Dep'
'Defi'
'Dear_'
'Dean'
'Daphne_'
'Damon_'
'Da_'
'Cover'
'Cour'
'Count_'
'Cops_'
'Cop'
'Coo'
'Compa'
'Commander_'
'Club'
'Castle_'
'Cast'
'Caroline_'
'Carol'
'Cali'
'CT'
'CL'
'CHA'
'CE_'
'Brother_'
'Brook'
'Break'
'Brain'
'Bow'
'Bou'
'Both'
'Boss'
'Blue'
'Bit'
'Bir'
'Billy_'
'Best_'
'Beli'
'Bel'
'Beck'
'Barry_'
'Bam'
'BL'
'BI'
'BC'
'Awesome_'
'Aw'
'Atlanti'
'Ass'
'Arti'
'Army_'
'Arc'
'Ara'
'Annie_'
'Anne_'
'Amsterdam_'
'Ame'
'Amaz'
'Amanda_'
'Almost_'
'Alice_'
'Alf'
'Ald'
'Alan_'
'Ah'
'Act'
'AM'
'AI'
'AH_'
'AA'
'?"'
'94_'
'911_'
'700'
'55_'
'54'
'49'
'44_'
'3cHFF'
'23'
'210_'
'150_'
'110_'
'100'
'04_'
'02'
'/ _'
'..... '
'.....'
'... .'
'. .'
'. " _'
'- "'
',(_'
', - _'
'***'
')؟ '
')}._'
').. _'
'))_'
') - '
'$ '
'#'
'"؟"'
'"،'
'"..'
' ؟ ؟'
' ؟ "_'
' ، "_'
' ، '
' \u_'
' ....'
' ... ._'
' - ...'
' - - _'
' - "'
' * * _'
' )..._'
' ) , _'
' ('
' ''_'
' ''
' # _'
' ".'
' " " '
' ! ؟_'
'‬'
'ن'
'م'
'ο'
'ü'
'ñ'
'é'
'¡'
']'
','
'+'
'♪'
'™'
'–'
'إ'
'أ'
'τ'
'ε'
'á'
'Ã'
'¢'
' '
''
'{'
'^'
'['
'W'
'@'
'/'
'—'
'٠'
'υ'
'ρ'
'α'
'ö'
'è'
'¶'
''
'h'
'$'
'♬'
'♫'
'‭'
'​'
'چ'
'١'
'ق'
'؟'
'σ'
'ς'
'ν'
'μ'
'ή'
'ά'
'ı'
'ç'
'Ó'
'¿'
'£'
'!'
'😂'
'�'
'ﻻ'
'ﻵ'
'‒'
'ڨ'
'٨'
'٦'
'٢'
'ש'
'й'
'ώ'
'ό'
'φ'
'π'
'ξ'
'ι'
'δ'
'Τ'
'Θ'
'Η'
'Ε'
'ý'
'ú'
'ø'
'ó'
'ä'
'ã'
'à'
'×'
'Õ'
'°'
'­'
'¬'
';'
'ھ'
'â'
'´'
'ª'
'`'
'?'
'>'
'<'
